/**
  ******************************************************************************
  * @file    network_data_params.c
  * @author  AST Embedded Analytics Research Platform
  * @date    Sat Jun  3 21:00:36 2023
  * @brief   AI Tool Automatic Code Generator for Embedded NN computing
  ******************************************************************************
  * Copyright (c) 2023 STMicroelectronics.
  * All rights reserved.
  *
  * This software is licensed under terms that can be found in the LICENSE file
  * in the root directory of this software component.
  * If no LICENSE file comes with this software, it is provided AS-IS.
  ******************************************************************************
  */

#include "network_data_params.h"


/**  Activations Section  ****************************************************/
ai_handle g_network_activations_table[1 + 2] = {
  AI_HANDLE_PTR(AI_MAGIC_MARKER),
  AI_HANDLE_PTR(NULL),
  AI_HANDLE_PTR(AI_MAGIC_MARKER),
};




/**  Weights Section  ********************************************************/
AI_ALIGNED(32)
const ai_u64 s_network_weights_array_u64[25427] = {
  0x3cd2244a3df9574cU, 0xbd3432043e29eb10U, 0x3c8cc760bc999ebeU, 0xbe3113af3e3fce9dU,
  0xbe3d11c5bca2d6fcU, 0x3dbaff8f3dbc83f8U, 0x3d3308a73c8a1693U, 0xbc36c3403e23336dU,
  0xbdb554d63e6a21a3U, 0x3eb5093a3da17667U, 0x3db8d9bebd0dda6eU, 0x3ccde36b3e0f20bcU,
  0x3dbaf7023cc5773cU, 0xbca644fc3e36d5f7U, 0xbdaf77b43d92f114U, 0xbe3ef2163dc22addU,
  0x3de12b723d67e243U, 0xbd833810bdf18fe2U, 0xbdd864d93d7a99cbU, 0xbdcc6ae73e1253a1U,
  0x3e0c150b3d7dfffaU, 0xbbb9e3d2bdc1dcd7U, 0x3d6dbaa8bd85e115U, 0x3c570fef3d6e4e13U,
  0xbb213275be093aa7U, 0x3cf69522bd9f7146U, 0xbd6d99d43daff449U, 0xbda6481b3e1e52ccU,
  0xbd3d1a0d3cf253d3U, 0x3daac9ba3db0e167U, 0xbcbf3cc2bd846bfdU, 0x3ce08725bc91e724U,
  0xbdf51b803d1378eeU, 0xbd9b34f0bd6cf16bU, 0x3d1a3c2b3e28d48cU, 0xbd7b437d3cf4b7a3U,
  0xbb53538ebbedfbadU, 0x3d9c0b0c3de1d64aU, 0xbe024bca3ddf83d2U, 0x3dde8e323dba7d52U,
  0xbc90449b3d87bda5U, 0xbbdc0ada3c9e57ebU, 0x3e078a613df1b028U, 0xbda5d4b9bc0bbb72U,
  0xbdc11f283dfe4720U, 0xbd8a522dbddf34d8U, 0xbe282eadbe0c4b56U, 0x3da9c1abbd1f00adU,
  0xbe16ff13bdb13b4eU, 0xbdcc43943ce89b3eU, 0xbcc8ced73dd1a545U, 0x3d98d6193cc83503U,
  0xbd998f7bbe2fc66cU, 0x3d7df47cbc0d03abU, 0x3d9631893dcb4118U, 0x3da353353d74a2cfU,
  0x3b4bb1a83e4b12eaU, 0xbd70cfc3bcc20aa9U, 0x3ce91650bd294a30U, 0x3e16527abe127e91U,
  0x3d58bdebbda1dd93U, 0xbdaf3a09bdb8c0f4U, 0xbb3a8d12be25eae1U, 0x3bbf9de7bd585e0dU,
  0xbdf9ca55bd4eb53fU, 0x3bd259d33d696644U, 0x3b5d3de2bcee6a92U, 0x3de753a6bd09ebc3U,
  0x3cbb5db5bc4153ddU, 0x3dca73d4bd8e1fb1U, 0x3e371e6dbe2ee529U, 0x3c09cb823d35b8c4U,
  0x3d6ab300bcfa0759U, 0xbe23d092bd8a1c25U, 0xbdc75118bddd4445U, 0xbd7def39bdb67190U,
  0xbdecdecebdd40ab0U, 0xbdb54052bbc1be5cU, 0x3ccc950cbdf42ddcU, 0xbe57338cbe00b0e6U,
  0xbd4e2ed53d54674dU, 0xbd90e224be38392dU, 0x3cd8fb7dbd562b6dU, 0x3cd3937cbdab6f98U,
  0x3e6b679dbd600cd7U, 0xbda7b90e3bd03cf7U, 0xbe1aef9cbd446678U, 0x3c82fd913d44cf24U,
  0xbd01ac3cbde5c409U, 0x3e8c3c2abda84160U, 0xbd66842b3c8a5aa6U, 0xbd67fbd03b03be36U,
  0xbdb3635abd0ec704U, 0x3db35bcfbde3c449U, 0xbd804768bd54e573U, 0x3d2396b83d28968cU,
  0x3d7f226bbdf0a93dU, 0x3c1690983e18055bU, 0xbe7d0a203db59399U, 0x3d26ee5dbdfbcf1dU,
  0x3ca34f1c3dbf673dU, 0xbd8bd4d93e09f51fU, 0xbd0ffb9cbbd08255U, 0xb8b6e08ebd9052b4U,
  0x3b0daf7fbc0ab6f1U, 0xbb8c9454bd5f13d9U, 0x3c3e2e793de7a3a0U, 0xbdbcc4bdbe049aacU,
  0x3a2c71083d027519U, 0xbcbbb9f93c2f4e61U, 0x3df03794bdcd8ca1U, 0x3dab21e93e3ba940U,
  0x3df795483d8210baU, 0x3dda5fdb3dadea68U, 0xbcf7c458bd17fe3bU, 0x3d5c4c66bd9054a2U,
  0xbdddf88ebdfa95c3U, 0xbdcc8909bd60dd0fU, 0xbd5984fbbdfba77aU, 0xbd6277d3bd857fb0U,
  0xbd219facbdf334fcU, 0xbdc49a7cbd163b18U, 0xbcf3cbd13db128feU, 0xbe037879be0232d7U,
  0xbc305fc8be0bb2d8U, 0x3dcd7f343dc00caaU, 0x3d91a43e3dfb9e66U, 0xbdcdb498bc45ebcfU,
  0x3ddc59e73c743242U, 0xbdc608fbbd894769U, 0xbe01cd0b3da7ac72U, 0xbc6da74e3ddcce1cU,
  0xbd9f6338bdb2d780U, 0xbd60f8e33d901178U, 0xbd69930bbdc14a0dU, 0x3e2b8ec4bd85b0b6U,
  0x3db2665f3d0f04e7U, 0xbdd88f1a3e32935dU, 0x3d283d32bdf9247eU, 0xbe0d0e2bbdd6e4f8U,
  0x3d1387323e184b6cU, 0x3d8f0c783e05d4a1U, 0x3d92f18bbd6519edU, 0x3db2952f3e0a4554U,
  0x3dd04257bd8c024cU, 0x3e07a6133e1b8b88U, 0xbdf4dd353e020315U, 0x3dab33493e03457bU,
  0xbe4c6e813db555eeU, 0xbd120a5cbe158789U, 0xbdd621d7bc9f7480U, 0xbc96b85a3d6a4fe4U,
  0xbdb0d2d53b003febU, 0x39ea318a3d875926U, 0x3df864e6bd319577U, 0xbdbbbaa73d0b9474U,
  0xbdf2f6063e1dfbc3U, 0xbe15aa103e2d4fb7U, 0x3d13780f3df8a740U, 0x3e1953973be59e99U,
  0xbda305a93dc9a91eU, 0xbd3e47b1bd19e637U, 0x3dc6c26dbb8aa6e6U, 0x3d94b449bb3fa49aU,
  0x3d1511033e23b2c0U, 0x3d22ca0d3e279c3bU, 0xbdde33d03cdacf52U, 0x3dc44bae3e309f85U,
  0xbc84362abd8df0c6U, 0xbd2a946a3da920ebU, 0x3e1026383d712eb5U, 0x3e32727b3dd9084cU,
  0xbaaf967b3da2bb0fU, 0xbc93c717bddfc142U, 0x3d55b8483cdbf82cU, 0xbc2267e43dbc920aU,
  0xbc8b40a8bcdf6b96U, 0xbd78196cbd8f32afU, 0x3e5e4ae33d8b58e6U, 0xbd9de138bd81918dU,
  0xbddfd30bbdc0d429U, 0xbc86ae743dce3084U, 0xbdeaf5013daba855U, 0xbd8f9dd83e00722cU,
  0x3e6bd901bdc75cecU, 0x3e050ccc3d71088aU, 0x3de2aa363d92844cU, 0x3c9f96fe3d803eb8U,
  0x3da438773d1ea609U, 0xbe2bf832bc8cfd1eU, 0xbc962baa3db574d4U, 0xbd99da99bcf78c30U,
  0x3d41ccbfbbc22796U, 0xbdf6822ebe79e8e1U, 0xbd82892bba94da92U, 0x3e2280e53c7db973U,
  0xbe1b40aabd8996deU, 0x3e3771153cfebc57U, 0x3e18afdf3de17052U, 0xbdbf7083bdd28014U,
  0x3df6f592bd9e5731U, 0x3db57cebbd1c7d70U, 0x3ddb2ec3bd892dacU, 0x3e1a1465be25f4e4U,
  0x3ca1acc53d4d09a6U, 0xbd4ca2a1be1aa0eeU, 0x3bf9fb7abe0cd91dU, 0x3d3834e33d6d058aU,
  0x3e47d5eb3c2a033aU, 0x3e08a5403cab1346U, 0x3dde0cecbd93fabdU, 0x3da0460b3da8316dU,
  0x3c1ab026bc61090fU, 0x3ba0bfc33d4b8586U, 0x3ca894c0bc865574U, 0xbdcf8a40bd588551U,
  0xbdab1df73e1f9826U, 0xbd20f6ccbdc61832U, 0x3df2e57abe33cd51U, 0xbdb96423bdc77a26U,
  0x3db9b424bddfdeb2U, 0xbc12cb62be07a3efU, 0x3dcb612a3c484b4eU, 0xbe55162dbdf4a924U,
  0x3d6f4be93d88ea25U, 0x3d85e764be1645eeU, 0x39c418cbbd5fc846U, 0xbda2b9273e0d128cU,
  0x3e205866be1774edU, 0x3cbbe7283dabea26U, 0xbd00fb38bdb87b8dU, 0xbe036a6ebdbbe14cU,
  0xbe06aa693e21f155U, 0xbe05e7053cedecceU, 0xbd87eef63de65b85U, 0xbdbb90c1bd784b0cU,
  0x3d483c01bd1129dfU, 0x3d7694ba3da9731fU, 0x3dc4acbbbdf1cf11U, 0xbe0f2ac33ce91d1eU,
  0x3b9b32c5bbcb0e78U, 0xbd886d80bd76b636U, 0xbd5ceed83d50ab8eU, 0x3c9fc40e3e7b7f67U,
  0x3d2446e4bccb0457U, 0x3d9e24dabdcd6321U, 0x3ccd21aebddd721fU, 0x3a3a6909bd01fbfcU,
  0xbba927343e829ab5U, 0xbc44f1393e14bf17U, 0x3c1f24a7bd42dc00U, 0x3cce080fbc14b76eU,
  0x3c95c7793dcd70a9U, 0x3d805221bd4f399cU, 0x3bad0526bdb1d91dU, 0xbd98ea19bcff71c9U,
  0x3c5114843dc68c38U, 0xbd82ceb73b33f843U, 0xbdb5dd03be25e58bU, 0xbd6cdd40bdf03d3cU,
  0x3deb154fbe11ee8cU, 0xbcdfc81ebdba12e4U, 0xbdffb50a3d8a55f6U, 0xbd4590c03db245a5U,
  0xbe3b6691bcf3acebU, 0xbdf84a093c72ba4dU, 0xbdc773283d421c1eU, 0x3dd375d73e0cc701U,
  0xbd87b541bc03e406U, 0xbca7ce473d9a2b46U, 0xbd2e5f7bbe0fe207U, 0x3d5600bfbc563bb2U,
  0x3e0d113c3e073075U, 0xbc3956f4be06aed7U, 0x3dc905a43e00b8d1U, 0x3cfdcd6a3de53eefU,
  0x3d7c8280be0ccc76U, 0x3d450b663d8730ddU, 0x3c35f9263cea1057U, 0xbdc2b4aa3e005b3cU,
  0x3dab74dbbe55f151U, 0x3e26ca653e1a002eU, 0xbcd23caa3d2aa6f0U, 0xbd5777583b840591U,
  0xbd7efc783dbe93fdU, 0xbc04aa783d80f1a5U, 0x3d953be2bd5804fdU, 0xbd0be23ebe0a8e45U,
  0xbd807fc7be04f533U, 0x3cd65aacbe19dcd9U, 0x3bbe1b54bdd8a3bdU, 0xbda9fe643da0dab0U,
  0x3e12c3c2bc7baaceU, 0x3d8ad245bda31d28U, 0xbe106a0cbdd419beU, 0xbe0698b53dca3a7bU,
  0xbdfd1d093e4b0195U, 0x3d8a322c3db046a6U, 0xbc72c301bd5d80d8U, 0x3e09ddb3bd9b0d5fU,
  0xbe0023243d9a24e4U, 0x3dad22203ddf0a0cU, 0x3bcd79a33d70ca5cU, 0x3dbd47d8bd0e477aU,
  0x3cdcf4043d73bc5dU, 0x3d6d90bb3dff6540U, 0xbd7d8222be290872U, 0xbd60234a3d1febf0U,
  0xbde5bf0cbbddeedbU, 0xbde17e313e292c98U, 0xbd91e3173d58f062U, 0xbdc7f7ee3d9cd5edU,
  0x3d1e0b823de9e113U, 0xbe19e7213d365611U, 0xbd91b4d93d5e8a36U, 0x3e8685003e002a6aU,
  0xbd26ee22bd9187edU, 0x3acfa162bc1fab87U, 0x3e1123a7bd8ac6caU, 0xbdc97f31bbb1566fU,
  0x3e4323fdbda2b0dfU, 0x3e10ff833e1b2ed1U, 0x3e55b3dabd421872U, 0x3dc4e0bcbd6f1fcaU,
  0xbe2891f7bdab7b2aU, 0x3d4192523dbd12eaU, 0xbdd2900c3db57f2bU, 0xbd1568dc3d9fbb44U,
  0x3d445e3a3d8b5264U, 0xbe9cd46f3d46d3b2U, 0x3d8aa81c3dc7cff6U, 0x3e5c3fe03dcdc7fcU,
  0xbc0610c13def2eacU, 0x3e048d583db3c1a0U, 0xbd064698bdae497cU, 0x3d334f293dc22615U,
  0x3cf07147bda51ab4U, 0x3dbec52ebc3c4cd8U, 0xbc5417a7bc93b693U, 0x3e32c5a83d9ba8e1U,
  0xbd8b97de3e4c5a6fU, 0xbdf5607dbd2cb156U, 0xbdb72d353e173eceU, 0x3cafbadbbc557097U,
  0xbd26d37b3ccaf2c9U, 0xbe509a58bdb7a7d4U, 0x3debcc043dd4e8a7U, 0x3d2199eebd2d2c8aU,
  0x3c8fa2a23bfe28cdU, 0xbcc6ceb93e1232d4U, 0x3df9b88d3e0e58e3U, 0x3cff5cf23cbc1cccU,
  0x3d9640483da72408U, 0xbd6f79c93c724fa4U, 0x3c8353023d4ed0b8U, 0x3bef55873e101754U,
  0xbdfefd463d59acb4U, 0x3c01969ebcf38c7dU, 0x3e0491f23e100f3fU, 0x3d81f2ca3d2d7946U,
  0xbd7ec832bccf65e3U, 0xbe6898bbbe1b0285U, 0x3d922a023d82b414U, 0xbd9dc1debdeee4dfU,
  0x3e4162e6bdb511c1U, 0x3cea3f5bbd795b24U, 0xbcc6b05a3c9ebe98U, 0xbdc6c89f3d834708U,
  0xbce356d6bd22c8b4U, 0x3d9c0aa9bdc06183U, 0xbca60854be292488U, 0x3e119ff8ba5dfad4U,
  0x3d4389d73d9571feU, 0xbe09f668be378496U, 0xbbab9a39bc2fffa9U, 0xbdb9ae89bcd5821cU,
  0xbd5c6f34bdac79d2U, 0xbcb53860bdb9ccc2U, 0x3d2ba81cbd5d3330U, 0xbe13f782bd843d56U,
  0xbcf23fed3c07a2f7U, 0x3d578897bdbb710bU, 0xbdc38c9e3b9cb8bcU, 0x3e27beb8bdb945c0U,
  0x3dd203533cf1dc29U, 0xbd9c6d86b71737d3U, 0xbe02e4ee39ea71a0U, 0xbdbb9343bdebbec7U,
  0x3d7e688f3e2e17efU, 0x3d4704a43dba8f33U, 0xbddc4cbebc890501U, 0xbdda0f6b3e07dbf3U,
  0x3d4af6f9be06eef6U, 0xbd965179bd84943dU, 0x3daf9f2abd951b1bU, 0x3d84191cbd941822U,
  0x3c520fa1bce5499cU, 0x3e324f7abc50c893U, 0x3d9a50ee3daf00aeU, 0x3df6f3e23e11829cU,
  0xbd175fa6bd178d70U, 0xbd5ac71b3da24ed5U, 0xbbc9c5a6bd58b6f0U, 0x3d96007ebd7b224dU,
  0xbdcd8c393daa1b3eU, 0x3c9c9709bd6ee2e5U, 0x3d1d34783e1b0660U, 0xbdb15676bb6480dbU,
  0x3dce4264bd84456dU, 0xbd9ed271be34669fU, 0xbdedaecfbe1d97bcU, 0xbcabf49e3d0f90fbU,
  0x3e203facbe0f36d9U, 0xbd878b77bdd532a1U, 0x3d626361bd2af7b2U, 0x3dbf9183bd9f6370U,
  0xbdb558eb3d3a3fc9U, 0xbd8997f1be2117deU, 0xbda45c99bdd354e5U, 0x3e18e5733c74f156U,
  0x3e0c25d2bcf7b98cU, 0xbe07536cbdf5e961U, 0x3d78bd0abe4ef318U, 0x3e0526dfbe1e314dU,
  0xbe2d33be3ddb6323U, 0x3da58e23bbed556fU, 0xbdab2228bdcb9d15U, 0xbdd009333d0fedfbU,
  0xbe3ff6ac3dda070eU, 0xbd72fa24bdcb5518U, 0x3cc8b7183ae6664fU, 0xbcbdaa643dab5cc0U,
  0xbdeb1f653d7c351bU, 0xbdd6ac983d90d582U, 0xbde70402bdaf603fU, 0x3db4111f3ce28563U,
  0x3c3047fcbe20d41fU, 0xbc15d80bbe10f0ddU, 0x3ce4c4b0bd976f67U, 0x3de9ffccbcd5317bU,
  0xbe1efc5ebdf3506fU, 0xbdbfc2f83d2930d8U, 0x3c26a90f3d55793cU, 0x3d6aa8943ce91194U,
  0xbd1aface3c486894U, 0x3babb1f3bd66b81bU, 0xbd6214adbe16cfefU, 0xbdc2c32d3e12c383U,
  0x3d88f065bdea1aa4U, 0xbd0e701c3db4b231U, 0xbe22e80c3de4d0beU, 0xbe095678bd026dfcU,
  0x3d86e5a13babb717U, 0xbd98fe5fbcf7e3cfU, 0x3a0c3b1a3cbf0f24U, 0x3d0c4c6bbdbaf562U,
  0x3ddfa02fbd8bb5a7U, 0x3d442a91bd6488eeU, 0xbddf47ffbce683f0U, 0xbdfc18ddbdb1e47dU,
  0xbdfbf22d3dd30afcU, 0xbd7476dabdd80890U, 0x3d419481bdb6a0f3U, 0x3ddd824d3de5340fU,
  0xbdcb8cd7bdfefafaU, 0x3dac29343e5e3e1eU, 0xbcb74bb13d95a554U, 0xbc1200f1bdcefc53U,
  0x3da12702bdf6edddU, 0x3de7af0a3d89a5c7U, 0x3dad1aeb3d327e97U, 0x3d5cff143d034849U,
  0xbd8b5abf3e02cd3dU, 0x3d71568cbda61935U, 0xbd8aaf3cbdad8a70U, 0xbd809d2ebc9f13b6U,
  0xbd11b1ba3db9cadcU, 0xbdacc24bbe01c69aU, 0xbc92e90e3d88c3e2U, 0x3daee3c33d9c6539U,
  0xbe5008fc3dac6c3bU, 0xbd696040bc8c774fU, 0x3c57ad043e118e1bU, 0xbd60e06a3be650f5U,
  0xbd67daa6bd5f0c75U, 0x3bb4a72c3d827e2aU, 0xbd6737df3bce3982U, 0x3d473a8bbda8d83aU,
  0x3e3e6e5d3da168fbU, 0xbe7a7c68bc04c968U, 0xbdbdeda1bdfa1b60U, 0x3d864203bd279921U,
  0x3e126689be255b58U, 0x3dc3f69dbe07ededU, 0x3e0be9fc3e096749U, 0x3e154bddbdb18ac7U,
  0xbe1b15b93d915829U, 0xbd569f4f3c63e75eU, 0xbe88756ebe23f6d7U, 0xbcdb795bbd88b9e9U,
  0xbb21c9a6bdf7d64aU, 0xbd8a7c34be7d874aU, 0x3e0c7af8be4542feU, 0x3e1d5ccdbc8450dfU,
  0xbd2fb386bd58590aU, 0xbde7d1f6bb7c1728U, 0xbd96e183bdbb14a6U, 0xbdbc3668be2d27baU,
  0xbe36054dbda9c068U, 0xbd06872d3c6cc9abU, 0x3e74d64e3d0435a2U, 0xbd2cf8d83d08107eU,
  0x3daebe5c3d6812d4U, 0xbda2b0383d38f3aaU, 0x3e02f743bc3585aeU, 0xbdee10e33e4ee1edU,
  0x3da10f2b3d3344f0U, 0x3de447dfbd4720d2U, 0xbd80cab6be805f8fU, 0x3e01020ebd52ce97U,
  0x3d2d7810bccc52f4U, 0x3d14dfc93d00a9dbU, 0x3e1e9a02bdacdf63U, 0xbdb066a23d6d6632U,
  0xbd280eb53e01bb26U, 0xbd91b0393e0ec656U, 0xbdd9328fbd2577c8U, 0xbd3dbeb4bd968294U,
  0xbda0d9d03cd9b143U, 0x3c78a0c3be300c2bU, 0x3dfd9c2abd246785U, 0xbdd2c6663d9bb56bU,
  0x3cca7fccbd91dfbaU, 0x3c77b94ebde29b85U, 0xbdd8b3ebbd4b7057U, 0x3d0d125dbb611fa8U,
  0xbd0e3fac3dd9d7ebU, 0xbd7ace0b3d37c531U, 0x3da1712dbdb424aaU, 0x3e3271633e0d3738U,
  0x3c4db6993d89c9b9U, 0xbdad9b953dfc0d81U, 0xbe23ee3ebe37ed5aU, 0x3d1e014b3dbc0bfaU,
  0x3e02cb00be03bf7fU, 0x3d6fffdf3c6bc052U, 0xbd171b083dfbc30eU, 0x3c6d307f3d495934U,
  0xbd4ab52cbdf39dabU, 0x3aef8a16bd1416ddU, 0x3d24450bbce2a2e4U, 0xbd4bb4ff3d7c8936U,
  0xbda66e583daf04abU, 0xbd222ee03d9e6418U, 0x3d6d42babe1bfd39U, 0xbd980c1f3d83992eU,
  0x3dbf38043dc72941U, 0x3bd1d8c7be148710U, 0xbdafcff8bdd390f9U, 0xbe08fa253c860ba8U,
  0xbe88671cbc90a492U, 0x3c1dd742bdef3836U, 0xbe58747d3cbb6635U, 0xbe50f3d53ac3409eU,
  0xbc40a4233c6f7ea8U, 0x3db4c88cbdec549aU, 0xbdc4b7453d64e846U, 0xbd59793abd6c30f7U,
  0xbc4a86d83e072fa2U, 0x3e88c2533a80a0d2U, 0xbd834cf3be07cb8aU, 0xbdea2c83be153595U,
  0xbcc47f38bdd5fd09U, 0xbdc6241fbd72df92U, 0xbe76f9723daab219U, 0x3e081a72bdad57d7U,
  0xbe894405bd2fdef9U, 0xbe0068473db4f3f5U, 0xbe06a521bddddb7fU, 0x3e0200f3be4322feU,
  0xbe666ccbbde5d78eU, 0xbe4dfb22be3069c5U, 0xbda4b7b9be418f14U, 0x3d9b64c4be6502d5U,
  0xbe8ec667bd922c9bU, 0x3e09b8eabe64ed02U, 0xbdde1450be1f1d23U, 0xbe041469be5bca7eU,
  0xbe653f32be217f10U, 0x3d9525b2bd552705U, 0xbe8734d8be131882U, 0x3d67cd9bbdda0eb9U,
  0xbd4a6fa4be0c0554U, 0x3d8a24933ded2e3fU, 0xbe894f31bc5b4665U, 0xbe0a9ee2bd876070U,
  0xbcd550d83d7081edU, 0xbe4e3ec4bda92bbaU, 0xbd321d17be176974U, 0xbbe0ed95be574063U,
  0x3d1d7bf2bcd07efbU, 0x3c9a6628be17ea96U, 0xbe50837dbe37391fU, 0xbe289610bebeae47U,
  0xbe4dd10cbd476241U, 0xbd7d5d433d81bb61U, 0xbe5cff79bcca5bffU, 0xbdbe1b253d615550U,
  0xbabc0648bd9547a1U, 0xbce2ccee3da8eee2U, 0xbe59d379bc0497cfU, 0x3e1098663d13ff5aU,
  0xbe0180b83e4f665cU, 0xbdf1e99a3dacfd4fU, 0xbe1e16733b97bb24U, 0x3d0ce071bcfe64cdU,
  0xbe38050dbc15ed72U, 0xbc6fd820bd655d78U, 0xbe696422bd207620U, 0xbdf11cebbe36a418U,
  0xbcffc018bd14bf9cU, 0x3de339fb3dbf1d0aU, 0x3d6a9e2fbdac6d4eU, 0xbd2237f83d6ceb7fU,
  0x3e13d3b33cd45782U, 0x3cf850e23e2f3e37U, 0xbe5275493e1c980fU, 0x3e07fc513da2a8daU,
  0xbc5743133dfb2aebU, 0xbdb417ba3dd96e89U, 0xbe4b82bd3d81f4d5U, 0x3d334a49bcc2ee68U,
  0xbe2373403e3927e5U, 0x3de5c2783d6406c7U, 0xbdaea6183c21d7a9U, 0x3e6b869bbd55cf54U,
  0xbe347d3ebdb95b32U, 0x3d6e07e13e358c52U, 0xbd1fd2273c6bace2U, 0xbc269acebc8736c0U,
  0xbd82c4f13de99313U, 0xbdefffae3d324843U, 0xbdf70b9dbc69db8bU, 0x3e2cd925bd4a07d1U,
  0x3d9367953e16539dU, 0xbd60098e3d67886bU, 0x3dfe9991bd64feadU, 0x3cc4ce9e3c574cf1U,
  0x3e5448bb3e6ccda7U, 0xbdad6c66be1e3e8eU, 0xbd350f10be0c13b6U, 0xbcea3013bdfa41a2U,
  0x3d578d7abe3c36d1U, 0x3dd68bea3d95bcf1U, 0x3dc028ffbda7b1ecU, 0x3e35175abd019b22U,
  0xbccf7e9f3bf7e517U, 0x3d2fbd92be186465U, 0xbdb444933c7b5f85U, 0xbd4b0624bd8395b6U,
  0x3dddbac5bbe9b283U, 0x3de9608bbd26df43U, 0x3ddfadebbe3b133cU, 0x3d9d14ce3e125c99U,
  0xbe8f74853d15326fU, 0xbda85c61bda33640U, 0x3d8b7489bdb331c0U, 0xbc0bbdf13d1b3bfeU,
  0xbe3f1a663d353093U, 0xbcafb9903cf9d90aU, 0x3bfce4a8be09ad43U, 0xbd89f06d3d50742fU,
  0x3c306bc53d1d1cc5U, 0x3d994cdb3d7137d2U, 0xbe1653a1be436e0fU, 0xbc668791bdaa3acdU,
  0xbc8c71f6bd1a67f9U, 0xbc7d53773d0be5d3U, 0xbe2dd21c3e0b425eU, 0x3e14eda3bca6bea5U,
  0x3e17b996bdb89d96U, 0xbd5d0fd9bd895537U, 0x3e00cd94bd835f17U, 0x3e609acfbcfad761U,
  0xbd50efb5bddc3bdeU, 0xbd41ebb0bd33f9c6U, 0x3dce6c85bdb8d780U, 0x3cfaae303d0a8a4cU,
  0x3ceb499fbd060cc4U, 0xbd47b880bc6f63aaU, 0x3d482f5e3c2f0d64U, 0xbdbec2413d8e3b52U,
  0x3dc121093d2de840U, 0x38e6a9523e3ede16U, 0xbce156603e000c56U, 0x3db92706bdb08115U,
  0x3dfd53cc3e0637f9U, 0xbca7b25f3dcff07dU, 0xbc596d55bd98878bU, 0xbc539e63bde224fdU,
  0xbdaddf283d3ae77aU, 0xbdbef3bb3bea8d73U, 0x3ca448f23d66d2b6U, 0x3d955eaa3ca899eaU,
  0x3deeb4843dab146fU, 0x3d10887c3cad7b2eU, 0x3dc2ee273e3a8bacU, 0xbd7272553e3b8612U,
  0xbd4e5f793cb98801U, 0x3de721da3e061285U, 0x3e1ab7d6bd66a59cU, 0xbd4c53593cfc8da6U,
  0xbc801d54bded6f4dU, 0x3e2a56093e06eafcU, 0x3e4270afbde9d6f8U, 0x3e79b8a73d77d2afU,
  0x3e0582533e18584dU, 0x3de912dd3e012b79U, 0x3e1531c53e0edc15U, 0xbd6af8663e1f7cd0U,
  0x3d4933a1bdce70a4U, 0xbdddc761bd42b511U, 0x3da997eb3d6ae56bU, 0x3d5fcb6abdbb87beU,
  0xbe64411fbd3742deU, 0xbb02fd1c3c37fed7U, 0x3cd9441b3d2dd841U, 0x3d065457bd3b2291U,
  0x3e13841c3c15b4f8U, 0xbd0b4d1a3b549d04U, 0x3e0a5e163c264830U, 0xbe0b1b273e2546baU,
  0x3dd92b5f3de373fdU, 0xbd138119bd2d75f1U, 0x3ca706803d612f88U, 0xbd8bbca93d9bc37dU,
  0x3d72cc6e3de6a6e1U, 0xbdae5385be0b5e3cU, 0xbcee420dbe175deaU, 0x3dd1e006bdd4c28cU,
  0xbe066069bc62ca1bU, 0xbe06e775bc4fa9c5U, 0x3e066abebe6bcb43U, 0x3e076eda3d984cfeU,
  0xbe4d3f0fbe3bdc3dU, 0x3e02214dbda50aaeU, 0x3e01cf5bbe2ca05eU, 0xbe0201b3be00a2c2U,
  0xbde6d998bded1ce8U, 0xbb32b5413e0be4d0U, 0xbdc76c0bbb22c5d2U, 0xbe02effe3d994dc4U,
  0xbdaf56913ce9e080U, 0x3df799fdbe451322U, 0x3d47a4333d73b5f3U, 0xbe6b21543e399dfcU,
  0xbdb3fe33bcac5bc4U, 0x3c7e9866bdf7c8fdU, 0xbdd5fddbbd86fa8cU, 0x3b6f6312bd750ff2U,
  0xbe08158fbd9d4cdfU, 0x3e462c5c3d1b4d3cU, 0xbced0f38bd8af04fU, 0xbd963c10be00a0e6U,
  0xbdebf8cb3e0a95daU, 0xbd1d2d76bd8699bdU, 0xbd810a04be2f9d59U, 0x3d6274433d838606U,
  0xbd1213823dc95048U, 0x3ddac8aabccc1e0dU, 0xbd162f9c3d028a08U, 0xbd984b0d3df34a90U,
  0x3d3e9e5cbc539da8U, 0x3dce3e333daa67d5U, 0x3d6b707abc8de955U, 0xbc5d7f2e3e1c88c0U,
  0xbe31973c3d9365b1U, 0xbcba8fd13c1dbb9cU, 0x3c9889a13e20395fU, 0xbd47da453e237ce9U,
  0x3bfd8213bd23663aU, 0x3d67669d3e0a3548U, 0x3d5d7db23d915053U, 0xbe19751ebca433c3U,
  0xbe1cb46ebcbd0557U, 0x3d170dabbe267c9dU, 0xbda4d7f4bdc8bbe0U, 0x3d4582323a661dcaU,
  0x3e29bcf9bcc254ceU, 0xbdecc5493ddab98cU, 0xbddd960a3d99f284U, 0xbdaf21acbd851a91U,
  0x3d92f0fb3d192366U, 0xbdf05a9cbd8bc6dcU, 0xbcb6142f3d93334eU, 0xbc1b8153bdac11eaU,
  0x3d3dc019bd2569e2U, 0x3dae3b7a3d343739U, 0xbd99afcebe0a61a5U, 0x3daa18f83cf9f066U,
  0xbdd3b9483e1f4cceU, 0xbd72c97b3d3156d5U, 0xbe4d59da3d50fe8cU, 0xbe36e675bde83c55U,
  0xbd22c542bcc3ad22U, 0xbc1f1ef1bcb38bfcU, 0xbdd7700bbe367eacU, 0xbdf738383d8ef7d2U,
  0xbc6e188f3d656744U, 0x3e9c9b8abc3b8c43U, 0x3d91b7be3d73e56cU, 0xbe5121a2bd2b1ae4U,
  0xbd8d13853ccc6683U, 0x3b71249b39cde8e7U, 0x3c1b69c3be238d49U, 0xbdeb97eebd3a1309U,
  0x3dc9b6d3bd14cb34U, 0xbe0423703de613f0U, 0x3dde550fbd8d1e06U, 0x3dac34a93be3e6f5U,
  0x3d76b67b3d0ead6fU, 0xbd85cc553dd36628U, 0x3dc1e5a73cb5ca1dU, 0x3d6d28453ca603feU,
  0xbd41219a3d5ba1b5U, 0x3d7fdc9abce4a470U, 0xbd3d64acbdd8a094U, 0x3b8604c1bdb14c15U,
  0x3d8c14ec3d271615U, 0xbd7d4c0bbcd27cdeU, 0x3d4ec999bd000ca6U, 0xbe39d523bd31d9e5U,
  0xbd2a1c13bdc1c830U, 0xbe16ed053d8b6c4eU, 0x3e07a1f8bc6e1befU, 0xbd8834a6bd2b4e2eU,
  0xbd21b8e9bbc8ada7U, 0xbe0a5237bde1777aU, 0xbc6df08f3d98d548U, 0x3e0055ad3b93c674U,
  0xbc3cc0323d7bf92dU, 0xbdcde36cbca47f8fU, 0x3d3412443dd4de72U, 0x3dfe0b973e1177a2U,
  0xbdb280643cd6b841U, 0x3d9bf50c3db7b169U, 0x3dbe2b4c3ccf2934U, 0xbd01d72e3db5e08fU,
  0xbd03f784bdf1e945U, 0xbc1de8e0bc6c2e8cU, 0x3d483495bd836e2fU, 0xbb109260bd5da3e0U,
  0x3c9a4229bc9567cdU, 0x3d4f26debd3b6d20U, 0xbde97eda3d16ac42U, 0x3d9e76d43e055442U,
  0xbdc1eee6bd0f7bc0U, 0xbaee99b9be0bf2cdU, 0xbdd2e16a3dc23cebU, 0x3e31d7313dea8f7aU,
  0xbe08b18a3d8b1759U, 0x3db1dca73df1abf8U, 0x3e16216b3d1d8c37U, 0xbe17f3d7bd8adc08U,
  0x3d9131d3bd7349c6U, 0x3c1ee682bde44651U, 0xbdcd94133d270fa7U, 0xbdab7b033dc2df19U,
  0xbe5241e73b010f00U, 0xbddabcf63e01863aU, 0xbd9e931e3c84e9f8U, 0xbc564e373e024474U,
  0xbd4148df3e5b5982U, 0xbe372afb3e030411U, 0xbd96140cbdcd0fbcU, 0x3d5d60fc3c2ae5e8U,
  0xbe062e383cc20937U, 0x3d2b12243d04fedbU, 0x3c70d4c93d85ae61U, 0xbbf5f7993d8b0658U,
  0x3d8bd2313d7f29f7U, 0x3d1785f9bd49fd8fU, 0x3e366e273e2ebfc8U, 0xbd0ae0933de1c86dU,
  0x3e55f6f43d0ba69eU, 0xbd7308af3dc2c0e1U, 0x3d915bde3e22c9d9U, 0xbd8d90ba3e0c770aU,
  0xbd895e96bd712d25U, 0x3deaf3bd3df7da2aU, 0xbabb62ebbd1b2e6aU, 0xbdca60763e15d012U,
  0x3e0709763e173a4cU, 0xbda0adc93e0d029aU, 0x3d28ccfcbc5a54dcU, 0xbe0b5d353d351868U,
  0xbda4948f3d168636U, 0xbdcacd6a3c038d19U, 0xbb99833ebc953c2eU, 0x3de27a67be3d9162U,
  0x3d5febd03d0534ddU, 0xbdcbce873dc8cb73U, 0x3dd811ffbd302977U, 0xbd4a990a3d3b84dcU,
  0xbd3962efbc9d0281U, 0xbe5537a03d3af29bU, 0xbdc1acc93dd480a5U, 0xbd3f4b003c4653fbU,
  0x3dffbd3fbd5ef919U, 0x3dfe3d92bd6e9d8fU, 0xbda13c7a3d838091U, 0x3dd489df3d89f9caU,
  0x3d7f40d3bd6e4380U, 0xbcff37dd3ac68f85U, 0x3cc7e6173dbb603aU, 0xbda65ed03d6705fcU,
  0x3e0d1223bd2ad261U, 0xbd5334c9bcb60674U, 0xbdc12a0d3de18884U, 0x3cd834a4bd942203U,
  0x3e013f0abd578e0aU, 0x3c404211be00a23dU, 0x3db741f23d9574ceU, 0xbe5096d0bdec4238U,
  0xbdb11ec4bda7d78fU, 0xbd47e4563cf6b799U, 0x3c21ef8a3da953bcU, 0xbd1939403cbdd78aU,
  0xbdb0ad12bda87794U, 0xbdd80aaf3e1405dcU, 0xbb66db463ded92c5U, 0x3c3dcfb83d0d18e5U,
  0xbc2ed657bcc2fd1bU, 0xbd645e353cef31e8U, 0x3d7661acbd6d94d5U, 0xbd891368be095d73U,
  0xbdc32a713d96f63bU, 0xbdb5134c3ca20f35U, 0xbc98f817be12a1baU, 0xbe0de374bda20f72U,
  0x3daa6a4fbd96b857U, 0x3dcdee55bd57055aU, 0xbc8bee783dbbb7bdU, 0xbd1bc540bd7952c0U,
  0x3d33dec83d87ceeeU, 0xbd86c2de3c9b1143U, 0xbd94f458bdebf274U, 0x3ce0d80c3c870489U,
  0x3db7311b3d902148U, 0xbe255670be16f293U, 0xbd6365acbc47052dU, 0xbe1ded253dd50d49U,
  0x3d8c216b3da59580U, 0xbe31797a3d66a989U, 0x3df71931be2d89abU, 0xbcee84f6bde1ddedU,
  0x3d17d60bbdfaf34dU, 0xbdb8cb5a3db2a661U, 0x3e26a93f3d65ea56U, 0xbe266dc13dc44e1cU,
  0xbe41fe243d121d2eU, 0x3dd56b733e754a0eU, 0x3dc319143dbeab4cU, 0xbde554abbd004369U,
  0x3e1f3bdc3e40038aU, 0x3e6dd3acbc86bf5bU, 0xbd8d073d3dd492c5U, 0x3e36e6093df6e2eaU,
  0x3e254ec7bddc2cabU, 0x3e50ec69bd8c5579U, 0xbe0a92ff3d8ad38aU, 0xbc9b86d83e0af33fU,
  0xbdf548f33d570bbcU, 0x3d77b93e3dd98e3bU, 0xbe26a8143dcf37c4U, 0x3e3fa4213e002528U,
  0xbe3cb2b4bbba3d0cU, 0x3dfd679b3ce58762U, 0x3c7dfb1cbd0bf346U, 0xbd9da063be704fc9U,
  0xbe3ba75dbe048d92U, 0xbdd56a433e298426U, 0xbd7afd4d3e3d7a63U, 0x3d8f4d0cbd35bbaaU,
  0x3e1a42f93ddc4be2U, 0x3e0ab617bd537bd2U, 0xbe46988fbd6655d4U, 0x3c29b3e83df9b8d3U,
  0xbdb6cd6ebe219701U, 0x3e30c783be829ab5U, 0x3dd8045a3d8acd17U, 0xbc1cfd87be363431U,
  0x3d6e99c9bdebc4a1U, 0x3dc3b6e23d662b8eU, 0x3e2da72cbd33d259U, 0x3d1f864f3d400d2dU,
  0xbeab6202bdcbc269U, 0xbc15ec2abdc9a469U, 0xbd81284bbe0335aaU, 0x3dc15bb3bda85f43U,
  0x3c82a6cf3e04f435U, 0xbde73f6abd314a80U, 0xbd3759b6bea48babU, 0x3e692926be0332a1U,
  0xbd92cc49be085676U, 0xbd7bde9cbe13e3d2U, 0xbdad4dabbe533b1bU, 0xbe0e50bcbd7a8c7dU,
  0x3d9da7e1bdf3b5bfU, 0x3d8cb5823d52f8d1U, 0xbdae1e7fbe44deeeU, 0xbde352d9bd724cc8U,
  0xbe9d379cbd1b29bdU, 0xbd984e92bdcefa99U, 0xbde0f10abe174e32U, 0x3de634823de28dafU,
  0x3de6c1fa3e8157a9U, 0xbbf91d66bd46d2aeU, 0x3db4c4e7be8b2531U, 0x3e30b9dbbdc90963U,
  0xbdf83bd23e070dc5U, 0xbe15b324ba0c4c05U, 0x3d936708be81996eU, 0xbe80c893bdd0a3aeU,
  0xbdbb26023e3755a1U, 0xbde6705bbe9a4b9aU, 0xbe7a66ebbe829673U, 0xbd6b6c993c8d9656U,
  0xbd036cf4bdc14f7dU, 0xbe30720ebea375d1U, 0xbdd301f2be8afac8U, 0x3cdfc0f93dc296e2U,
  0xbde1bc043e57303bU, 0x3d783e4cbdc96e89U, 0xbdd6e7f33d12aaaaU, 0xbd9fc56abd830a0fU,
  0xbe7677bf3d3cb9acU, 0x3c1775ef3b9a240fU, 0xbda07487be1a1edaU, 0xbdcb572dbe2be7ffU,
  0xbdbd93ca3e1d4a2fU, 0x3defb3003dfc9ca9U, 0x3d76124cbc829b56U, 0xbd95f8823bfabf28U,
  0x3d49f888be283e54U, 0xbe07a6973d23a074U, 0x3cfde4a2bdfae569U, 0x3c85ffc73ca18ecfU,
  0x3dc0c7203df38d65U, 0x3e190411be1a7e5bU, 0xbdb34f233d24b8b9U, 0xbc5aa49bbd97bef4U,
  0xbd87fb4f3c99cf61U, 0x3deaeef6bdaff0beU, 0xbe2e1b823dc8adabU, 0x3d63d7fcbdaf2569U,
  0x3e0e84aabc01a34aU, 0xbd8bd76c3e229245U, 0x3d2fa3373d2b9e36U, 0x3b8f3f363d9453f0U,
  0x3de6324e3de9efecU, 0xbe3a838dbe3ec725U, 0x3d802693bc214064U, 0x3c93aceabe2173aaU,
  0xbd85577abd4987adU, 0x3ce0edccbd8baeb9U, 0x3cdacc11bdd24570U, 0x3e0833a53da71ff1U,
  0x3d13447cbdc5e373U, 0x3d85d4fbbda93838U, 0xbc1e280f3def604dU, 0x3e326261bd96be20U,
  0xbd9114ff3c056728U, 0xbd31e6353dd27f2bU, 0xbe6216043d42b2e2U, 0xbca058b4bd82bba1U,
  0xbdb0f58e3e2985b5U, 0x3e0ce0fbbcacc97bU, 0xbb7dc4ef3caa3e92U, 0xbe22c3c6bdf48c26U,
  0xbd9d5f073e683c8aU, 0x3c40ddd63cca3c3cU, 0x3dbf17d7bdcb4613U, 0x3d0e365ebcc76bf6U,
  0xbd53013f3d021d4dU, 0xbe1967103dc75e76U, 0x3d0dc0d63e0b756eU, 0xbc1c4f97bd00006aU,
  0x3c2456c7bde125f0U, 0x3b3f90d13d56eba7U, 0xbd3968bbbdda1de1U, 0x3d3a5e823d4bbb4bU,
  0xbdb14fa9bdb5394eU, 0x3df0065dbe1cc53aU, 0xbde7b028bbf60c8cU, 0x3da35fc83cce227aU,
  0xbc6ce0dbbd3a2638U, 0xbd3fa8143ce09e39U, 0x3dee7ff8bd948a80U, 0x3ba00e793d63747aU,
  0xbe23eedfbc9b0ab1U, 0xbd80eec53cbd945bU, 0x3da19b013db570f0U, 0x3cf591c1bdbb69d6U,
  0x3df7d5eebda9ba27U, 0x3dc98dba3dc7d327U, 0x3d2641fb3dec9d16U, 0x3ae643043d2b8043U,
  0x3af1fd5f3dfa6f31U, 0xbe237e7a3beaab13U, 0xbc5270493c7a71f5U, 0x3db6352a3dcc9e07U,
  0x3d32f3ffbdaebbeaU, 0xbcfc6b57bd736a22U, 0x3d58fba53c9b1686U, 0x3db25c8d3d9d29ccU,
  0x3d222e6e3dc7bd4dU, 0x3e011e57bd8664f6U, 0xbe05dea2bd74a11aU, 0xbe022675bd8fa24bU,
  0x3db04047bd80a5d3U, 0xbd82edd9bdf1661dU, 0xbe1b01733b1b06feU, 0x3cfaacfabdc0f66fU,
  0x3c3996e83defc3d7U, 0xbe20ae7b3a8f43c4U, 0xbde94625be28aaeeU, 0x3d8eda3abdcade4fU,
  0xbd8f47273e077c0dU, 0xbd6a9ff6be28b17cU, 0xbd6c6a78bcfaf334U, 0xbe15ba4abd084a65U,
  0xbdee18703c126325U, 0x3deb6fd5be33d352U, 0x3df02b6b3dbe4492U, 0xbd5089363d2bc041U,
  0x3d995c75bd642ec1U, 0xbdd9c81e3db202b5U, 0x3d27da68bdbafd79U, 0xbd5bef65bd86ac23U,
  0xbdb2d3433de04079U, 0x3da3b68d3dd24e28U, 0xbcaeb56abd905aa5U, 0xbd5793f6bd46a227U,
  0x3e59b9593e97b93eU, 0xbdfefedabbff7654U, 0xbe1ec0113d0af575U, 0x3cfe6393bc25047eU,
  0x3df64966bdbd3076U, 0xbd6de08c3db12beeU, 0x3e4591943d8a1b2dU, 0x3ddb44333dff1adeU,
  0xbdf59302bd881f0bU, 0xbd59ee7abd60ce29U, 0x3da21844bdaea598U, 0x3dd125753ddf1ac9U,
  0x3e68e283bd080de7U, 0x3d7f063ebdcd7728U, 0x3d72e8ed3e3621b8U, 0x3d81f04c3d016a87U,
  0x3e20895abde5eb95U, 0xbd95c9913df1d399U, 0x3de470f53e0e47e3U, 0x3dd3ec63bdd07e6bU,
  0x3db94dcbbdfe6f42U, 0xbe109379be1b2dddU, 0x3e49c2e63d82d97cU, 0x3d9336a0bc94024aU,
  0x3dbd089bbcdd3ee5U, 0xbc33ff5638927562U, 0xbd6ab3d6bd40ed6eU, 0xbcfb52f0bc0bbc74U,
  0xbca9164fbde4d9ecU, 0x3dd580743d35d49eU, 0xbe3945b53e04ffbfU, 0xbdb27c473cfbbd54U,
  0x3d9aa8343d33466eU, 0x3c4b80f83dd903b9U, 0xbe03f46fbd029696U, 0xbd807554bde9cadeU,
  0xbdb2f7f73de2b968U, 0xbe4a5dd13d33e4a6U, 0x3dd62eb53d7fc54fU, 0x3d2ac0723de55e6eU,
  0xbd3c35343c0f5ed1U, 0x3db2711abd2feee2U, 0x3e1366dbbe18c7c4U, 0xbe04cd763d95bafbU,
  0x3da3e90aba070dd1U, 0xbde2e30b3d99a1eeU, 0xbd7546293dafa683U, 0x3df2d100bc366c01U,
  0xbe07e66cbded692fU, 0xbdb34635bd916f4eU, 0xbda28856bdc0299aU, 0xbc33f624be116e4fU,
  0x3c8370ae3cb6ec59U, 0xbe10d12e3df8a1a7U, 0x3d390ab53aa7c8a7U, 0xbdad749c3d65e6b3U,
  0xbd31552dbccb9c53U, 0x3dd31fd83e27f0e6U, 0xbd5ef98bbd2d8650U, 0x3dbbb9053ce13659U,
  0xbdcfd75e3de7b551U, 0xbe3a645b3de794d4U, 0xbd4797993e081185U, 0xbe7bcd85bd9e14dbU,
  0xbcf1580b3d3a66aeU, 0xbc57f6153cd01617U, 0x3d43dbbe3cda4799U, 0xbbf2c219bcc8abecU,
  0x3dbe4e6d3d879837U, 0xbdfac923be1931ebU, 0x3e0859443e3183bdU, 0x3e3dd7b9bd1df93eU,
  0x3dd0a7aebbb94857U, 0xbc043d163d530ae4U, 0xbda0e747bde35be9U, 0x3e075cddbdb22830U,
  0xbd727913be22acf1U, 0xbda2cfc8bd50b72fU, 0x3da89ee7be554561U, 0xbc04db2bbd8f20d8U,
  0x3b3199d63deecb14U, 0x3daaffd5bdb98938U, 0x3de1decabdd4ab0eU, 0xbe31b5a9bd719e76U,
  0xbdfb48e5bdb29264U, 0xbb62e0b1be26b3fcU, 0xbd50ee5dbdb89a7eU, 0xbdc9d2cabd6bcba7U,
  0xbdeef2c93d9a5be8U, 0xbd87fdbd3c02c77eU, 0xbe4303683e2e4191U, 0x3e0c46573e371ba3U,
  0xbcb038f13dc09958U, 0xbd775b1d3e27de5fU, 0xbdbd7f44bc8b5b5fU, 0xbd14afa83de6e9b0U,
  0xbe522e3ebe28fbf4U, 0x3cc736203c916487U, 0x3dffe6683d8f5e64U, 0xbd6661b5baaabe9cU,
  0x3e10a0debd992cd8U, 0x3da281953db38c83U, 0x3c960f73bd844f53U, 0x3d2b8d9abe26aa69U,
  0x3c2809ae3e198d53U, 0xbd1a6eeebdb21b87U, 0xbd84eaa9bc8d9a33U, 0x3ca9b9e3bdcd2d45U,
  0xbcaa59603d9d5142U, 0x3cf15d3fbdfa6c4dU, 0xbdf204b73cdbb1a7U, 0x3dd7d2d93d276c21U,
  0xbca7103c3d1d5d7bU, 0x3dac97a53d4438bcU, 0x3cb43e153dd7bc8eU, 0x3e0851a13c6e4769U,
  0x3e1a55f6bd987509U, 0x3d3f9ba73de657bfU, 0x3dd2a504bd47eb75U, 0x3cfa62853e04cc7eU,
  0xbdd54e35be040c2cU, 0x3d95287abd19b9a9U, 0xbb5ebcaf3d7be6a3U, 0x3d4ddf47bd242a2aU,
  0xbb98eba83da9f262U, 0xbe11a916bd1dd12bU, 0x3d18f8f53d9f2c33U, 0xbe100af23d995867U,
  0x3c7aaf763e2badafU, 0xbd87a33dbe0af536U, 0x3ca33f71bb8a75a9U, 0x3c4493513dadea29U,
  0x3cc91bdd3c9f7eb5U, 0xbde3f2f33d893d72U, 0x3dc5e630bc857cd1U, 0xbbba70763dd4914bU,
  0x3df7a6c2bd780512U, 0x3d1f0a2abc823e41U, 0xbe1da5693cbb7ffeU, 0xbe1cba8c3db4d8a0U,
  0xbdf2b949bdcf8401U, 0xbd4a3c98bd47582dU, 0x3e18012dbd6c17cbU, 0xbd594e3bbc3cae80U,
  0x3d9be6da3e5c6d5dU, 0xbe6bee44bdda3747U, 0xbdedc187bc5cf629U, 0xbb4365553da855eaU,
  0xbe3036a3bae0b9f1U, 0x3cdc9515bbd3ca0fU, 0x3dd16c8c3d0fc80fU, 0x3dd77b1bbd2c0e44U,
  0x3d446e2c3d4f751cU, 0x3dccf07c3d9e126eU, 0x3dded6a2be2a36e6U, 0xbe3cda4e3d184267U,
  0xbdd68fa53c178ee8U, 0xbe2195c8be1965beU, 0x3debf41fbd0c476eU, 0x3c68696d3da8c3ebU,
  0xbd4962efbdab0fd4U, 0x3db4c5ea3df18856U, 0x3dbee60bbe1825feU, 0xbc943eeb3e04bb9fU,
  0x3a31b7553e272c5aU, 0xbd8665ee3debb6b5U, 0xbe2b6b0a3d9b997cU, 0xbd9c022e3db9e1dcU,
  0x3e11e121be000197U, 0x3d9a6dc73d0163e1U, 0xbcdc1c4cbdad60e8U, 0xbd9e574bbce48c20U,
  0x3ca449be3dbe8422U, 0x3e043760be052eedU, 0xbda80b6dbe11f00cU, 0x3d1756eb3d475a00U,
  0x3d5a42b83d114cf8U, 0x3e4807353caf3aa0U, 0x3e01c8383e005eeeU, 0xbdbb9325bd77df25U,
  0xbe0d2a4d3d3e498eU, 0xbd9aba31bd1c37c1U, 0xbdbf7631be0a33a0U, 0x3e26d3d0bc84a2b1U,
  0x3dc394b5bca2a192U, 0xbc3bc978bdbd3ea6U, 0xbcc0c6c13e0b24b9U, 0x3d1d229abe05f04aU,
  0xbd93a4f1be13fbb5U, 0xbd7fa2cebd08dfc2U, 0xbe2d52de3d3815c0U, 0xbd1ccc14bdbe7d43U,
  0xbdf497d73cbcbfecU, 0x3e28c9683de70ef3U, 0x3d2d036d3db7f20fU, 0xbd85c6773d005315U,
  0xbe106078bd9129f7U, 0xbd99a467bdbe3531U, 0xbc95a0aa3da0c82dU, 0x3e28b2033bb4b903U,
  0xbe584965bdeee926U, 0x3dadf9e5bdb978bbU, 0xbd7acf05bd9e448aU, 0xbda40e07bdf31790U,
  0x3d95a836be10e26cU, 0x3dd99de93dbde013U, 0xbd887bd8bd8e48ddU, 0xbd336eae3a9ac70aU,
  0xbe0e2f03be8cf85eU, 0x3daf93dd3d36d22cU, 0x3d913eb03d9a66f6U, 0xbd671552be1b90f8U,
  0xbbf77beebda3e676U, 0xbe1b26dbbd696440U, 0xbd1e6a01bd8bc664U, 0xbd19d36a3dced355U,
  0x3dc030b33df320e5U, 0x3d918ae73d11496dU, 0xbcb67c543e0fc276U, 0xbe04dc983e6153f7U,
  0x3dbee0acbd28f368U, 0x3d93f4ebbd165aeeU, 0x3c1bc0103d971622U, 0x3d1b7945bdd82387U,
  0xbca5fb593e987c4cU, 0x3e2b0e2fbdcf73c4U, 0xbd871e0b3da0a8c3U, 0x3d643f003d958724U,
  0xbd9317173dda1dd9U, 0xbdb541383df7d05bU, 0xbcf34c2ebc2b33efU, 0xbd5f2c0ebdbf17bdU,
  0x3d36e6e3bb72386fU, 0x3da9b821be2fdd24U, 0xbdfb56c23dc73c56U, 0xbd4fca983d2f501cU,
  0xbd7a6ca0bddf4af7U, 0x3dcc92df3d59bfccU, 0x3de22c273dbaf5b3U, 0x3d86f438ba768514U,
  0xbe822be1be5c5f2aU, 0x3e2b182d3e01755cU, 0xbe1371e2bdafe137U, 0xbe442bee3c7b119bU,
  0x3d6f0b253d244ff5U, 0x3de98f383bf9493dU, 0xbdbb369c3d8b6f5eU, 0xbe0cc1133da9f7a4U,
  0x3d797c61bdd140aaU, 0x3dd44ab73d4d45c0U, 0xbe05f5b23940ecb5U, 0x3cd11fb9bcc09673U,
  0xbc300d8bbd2eca5cU, 0xbd0b70f4bdac9d90U, 0xbe36d6243bbb381aU, 0x3e00dda2bc187aebU,
  0x3ba305d43da6f57aU, 0x3e148ef3be36da11U, 0xbe50fe2c3aee093dU, 0xbdc07bf23cc0b9cfU,
  0xbdc4e703bdb375caU, 0x3e07ddd73c430554U, 0x3df815dabd99ef61U, 0x3df4e2aebd131121U,
  0x3c288e393d619597U, 0x3df1f66fbd4ed0f4U, 0xbe2b0259bd241b55U, 0xbe113a403e0b5f2dU,
  0xba4968233e1bd5b1U, 0xbdba06ebbe221ad2U, 0x3cefdd57bd77e7a2U, 0x3e07ad8b3d2277d4U,
  0xbd6ea52f3e781f71U, 0x3e33f6fcbda5afc0U, 0x3cc7fd38bd49c1c6U, 0x3d7d46aa3d2d9bfcU,
  0x3d977403bd44fdf5U, 0xbddf3a153da3bc87U, 0x3bc965bb3e0394b3U, 0x3c14b89a3bae23f4U,
  0x3d5de9b0bd4cbd90U, 0x3c3412fa3c194a80U, 0x3d85d18fbdae4abfU, 0x3df72330bcdb8adfU,
  0x3e1a0e973ded7b3eU, 0xbdb00c63bd3f0933U, 0xbd83529ebc6bfd0fU, 0x3e0fa777bde03e20U,
  0x3e0ebabd3e01d22dU, 0xbd593108ba3b55dcU, 0xbd7a3d8b3d067547U, 0xbdde92dfbd8b8d3cU,
  0xbd8a29423d9a06ebU, 0xbc566de5bd5583eeU, 0xbd65415d3c6d9c7cU, 0x3e0837003ca33791U,
  0x3e12d2d63c3e6321U, 0xbdb5cb1cbda8e491U, 0x3d58ad4d3d8451fbU, 0xbc3b0be4bcc9fa3fU,
  0x3e18c213bdb41616U, 0xbd677fd2bd860c4bU, 0xbddedc2e3dfa52d8U, 0x3d2a5d0d3e16715fU,
  0xbd0fb6693dc5d815U, 0x3e0633973ce9a573U, 0x3e667b423d45bf23U, 0xbdc109ac3e031fd6U,
  0x3d0a30563e0f0c7fU, 0xbdd12fc03dc3868bU, 0xbdc9ce0a3d4a1c9bU, 0xbd58403f3dd9aaa5U,
  0x3dc7f06d3df3da17U, 0x3e004671bd0d9748U, 0x3dca7f4fbd3ba008U, 0x3cb36b04be4b9eb3U,
  0xbda54a54bccef2bdU, 0x3e5046c33c62cbd7U, 0xbdfcd7e8bcedc1eaU, 0x3e2c60cfbcc8ec43U,
  0xbd7d63d4bd31074aU, 0x3e86caedbd575f31U, 0xbd9854593e143f12U, 0x3e7302b0bd219a03U,
  0x3d9546183e2a59aaU, 0xbe2af4cabdf14b6bU, 0xbcc9ffe3bc816aedU, 0xbdd3c1f9bdaae700U,
  0x3d417128bd8a0128U, 0xbd239aefbdb9416fU, 0x3df000313c4c5998U, 0xbd0c14febdd35e90U,
  0xbda164ca3e034449U, 0xbd027c493ddcbb25U, 0xbd80828e3d848a5cU, 0xbd6c8d5fbda86250U,
  0x3da1d9143dc92353U, 0x3e734abebd97aa6eU, 0x3df8ccb93c996670U, 0xbc6b36c9bc669ce4U,
  0x3dbffbdcbd02a3b1U, 0xbd289a9bbbca9dfcU, 0xbdb6e883bde5fb85U, 0xbc95ff523d7a7399U,
  0x3d419b173dafcde6U, 0x3d448ec4bdac4c3aU, 0x3d93bf15bdb601aeU, 0x3c62c669bcfd2997U,
  0x3c416e22bcb2e0d4U, 0x3cc5b72e3d64945cU, 0x3c18c85abdaa40a4U, 0x3e107514bcf8233dU,
  0xbc25118d3d26eb06U, 0xbb655bf83c3cbbe1U, 0xbd1518f43cf3b07cU, 0x3bd164f4be0fefc6U,
  0xbe072ef1bd4c216eU, 0xbd0fbfe7bddd943bU, 0x3e0c2110be2653b0U, 0xbb9dc509bda1175eU,
  0x3caf2fb2bcd63a31U, 0x3dab0b2a3dc4dc4dU, 0xbdc6c07cbd735739U, 0xbc933810bd6eead2U,
  0x3de0a3653e320fedU, 0xbdcb53e0bd664471U, 0xbdc7b286bd9df33eU, 0x3dff57ad3d8c9ad2U,
  0xbd4e07f43ebfdc45U, 0x3e0cadfabdd10e38U, 0xbda6966cbde8136aU, 0xbe33c502be0eb5beU,
  0x3d95138abd50a3ceU, 0xbc36bfd7bbcfde48U, 0x3da090ebbbe4e1d3U, 0x3c655bc73d87d93bU,
  0xbceca2eebde71218U, 0x3dd823533d72142fU, 0x3de03c393d7b516eU, 0xbd632a9ebdba1c8fU,
  0xbd5573f23cd11626U, 0x3dc364ec3e42222dU, 0xbd2f634f3e251292U, 0x3e12ce8b3d97b830U,
  0x3e1bf041be4fb0d5U, 0x3d073685bd7184abU, 0xbd55d14b3dd716a5U, 0xbda19f3b3db908e5U,
  0x3de5a7ae3da75a79U, 0x3e28d4c4bda0ea53U, 0xbd40e0d73e15f5d6U, 0xbd7a135bbc55a36aU,
  0xbda2e568bd3a1d34U, 0x3e07ca12bde55718U, 0x3c8f6ad33d127396U, 0xbd630fccbe2b4a12U,
  0xbe7aeacfbdfef62aU, 0xbe6c61c33d7d615eU, 0xbd1b1ad13d734400U, 0x3dd279e73d0513edU,
  0x3e1fec7c3d91655bU, 0xbdccc43cbd5e1d08U, 0x3b0515e6be6d246aU, 0xbd6dfc3c3d8325f7U,
  0x3df1901a3dcbf4fbU, 0x3d9dacdabe10e69aU, 0x3dcca96bbdb1d310U, 0x3cd4c4dabe122811U,
  0x3dc1ec333dbfc80eU, 0x3d3601e8bba0883cU, 0x3cb1b99d3d4a86f7U, 0x3e2dfe8a3e8e7f4fU,
  0xbd4e4a2c3d8b661dU, 0x3dd4a162bcc95af5U, 0x3d0aade7be4ee3b2U, 0x3da383b6bdd1a810U,
  0xbddf07513ec1bc47U, 0x3d6c726f3d80fa02U, 0xbcc23ee7bd93cd12U, 0x3d2464c2bdfae520U,
  0xbd98e7003dc37508U, 0xbd04f7663dbab113U, 0x3d6500d9be09e325U, 0x3cf4a03abe2fb72cU,
  0x3cd49ea6bdb51355U, 0xbdb83aa9be09be68U, 0xbdd31694be3b34f5U, 0xbc8c2f543e411b8dU,
  0xbd8ac1eb3ca60c5cU, 0xbe0b38dcbd784664U, 0xbe2bcf95be40e109U, 0xbd007308bdc74e05U,
  0xbe43f3bf3e95d9e7U, 0xbd4e87d3bdf45e84U, 0x3de6e6b1bb008fa2U, 0xbd2968333de0f2f8U,
  0xbe037666bd2b73d9U, 0x3dac8e13bc19ea21U, 0xbd42b2423d73dc00U, 0xbe18adfb3d8aac2dU,
  0x3e0886ae3c0715dbU, 0x3d98054abd7df3f8U, 0xbd3e4436be7b5318U, 0xbadfc7c43cfdff77U,
  0x3de763c93ccabc3dU, 0x3defab79bdd5da57U, 0xbd152b3b3db94825U, 0xbd15ce4d3dd1487dU,
  0xbdd2571e3e577694U, 0xbd057e123db4602aU, 0x3df0966cbbc2aca0U, 0xbc3efa133c4b8c99U,
  0xbcfe02efbd121297U, 0x3dbeeb4abe1617b0U, 0x3d7a6cb3be345b02U, 0xbbb4067cbc161729U,
  0xbd05fbe23dbb8778U, 0xbe0daa0dbd3f8015U, 0xbc37ab743bb5e922U, 0xbc97317ebe09a6b8U,
  0xbe17744bbdc38ee0U, 0xbd712ff0be296bdeU, 0xbdcb8cd9bd75f898U, 0x3e1d4c59bda10a4dU,
  0xbcae0e88b9b112d4U, 0x3d243b9ebcc9efffU, 0x3dafffde3ce577c0U, 0x3d7688ad3d788f11U,
  0x3b84c7b83cb1e936U, 0xbdafa9fdbd67a736U, 0x3bf1e76e3d9da219U, 0x3c2f8ccbbd72c7ccU,
  0x3e1a0b623e00c183U, 0xbdb108b13cec40f8U, 0xbe27383dbc9ce7fbU, 0xbdcbec3abdaf552cU,
  0xbd9f9527bcd8b776U, 0x3d237c1cbd76c50cU, 0x3d2b6abebe3e070bU, 0x3d142b503d7916f1U,
  0xbe32bead3e425bfeU, 0xbb4b5b403de4a828U, 0x3dc2dff03dbd1e24U, 0x3d5694b4bc3fe5f5U,
  0x3c05ee58bdbf6fe4U, 0xbd405df4bd2a83a5U, 0x3d016b09be094dd4U, 0xbc9cad44bdd5d0d5U,
  0x3dbb9adb3dd2d724U, 0xbde94768bd58e3adU, 0xbce726303e0d7af3U, 0xbe0018223e75bc98U,
  0xbdb409bdbe3bfafaU, 0x3dbd7f7a3d8106ebU, 0x3e0ee8733cb6fdd3U, 0xbdc12e2fbccc43d8U,
  0x3ca7b9553e010a2eU, 0x3e8863a13b899986U, 0x3e11ff62be0c7504U, 0xbcd9ce76bdaab08fU,
  0x3c43941fbdea3cfbU, 0xbc9a69a13e10f4bfU, 0xbc71753cbd80dc6bU, 0xbb4ccc343ca84d60U,
  0xbdd951f8bdf688a0U, 0x3bc9b0fbbe349700U, 0xbe02ae2bbdc7a4daU, 0xbd1e9b2f3d99f26aU,
  0x3d92cd43be5587b3U, 0xbad807cb3ddf1a52U, 0xbd08cc8fbe3dd339U, 0xbcca39143d277b61U,
  0xbe1bd358be3ccea5U, 0x3db680653dd6fc59U, 0xbe064d623de3feffU, 0xbc93cd6a3deec03dU,
  0xbcd4f7af3bc887cdU, 0x3cfc30f93cf09805U, 0x3c838e2ebde133d1U, 0x3db55f313c536970U,
  0xbd4fdc443df8f3b4U, 0x3de9729bbe1a897fU, 0x3d8b97a3bb3e954eU, 0xbdf1a660bdac5297U,
  0x3bd126eb3e1d2605U, 0xbdb380153ded2d89U, 0xbe2d125e3dce72a9U, 0xbd3b99c73c583e4dU,
  0x3cc47959be4d3ec3U, 0x3dff54ae3d994df6U, 0xbd276bd83c23cbe0U, 0xbdc0a0c33c3d70f2U,
  0x3dcf31593dfc8ea8U, 0x3d2ea316bcee0863U, 0xbd1e0c563b78dbb4U, 0xbd9d00cc3dabecf4U,
  0xbd8c71273da91ecfU, 0x3b406e8dbdd07b6fU, 0xbe25dda53db8f855U, 0x3d6b598e3e5609b7U,
  0xbd93bfdebe11b847U, 0x3e1e41f1be2f0946U, 0x3e28e78abe276560U, 0x3e10157b3e0ee699U,
  0xbde5f56c3e86450cU, 0xbd84ea82bb267ebdU, 0x3ccee781bc434fd6U, 0x3be6a9a23de8666bU,
  0xbdc56a3d3ae58dcaU, 0x3da5703a3e57aaa2U, 0x3e26e471bd190a9cU, 0xbdbb7fd7bd07a02dU,
  0xbd974bfe3d9f583bU, 0xbddcd31bbe29b094U, 0xbe198a4f3dfee3b4U, 0x3d5156debcc24f15U,
  0xbe18f349bdc44252U, 0x3cf52a583d167bcdU, 0xbd9616aabd283215U, 0x3d763e2bbd4c5bcfU,
  0xbe75491dbda8b814U, 0xbdb367fabd9cb952U, 0x3db8f5e63d0f9299U, 0x3e1931fc3d40ad97U,
  0xbdfd8521bdeb031dU, 0xbddfb378bceeb128U, 0xbd0398d53bfe0491U, 0xbcf380f5bc6d7f80U,
  0x3d9419f3bd62a35dU, 0xbd9054823e028e9eU, 0xbd6688d83e15e7baU, 0xbd226ee73e6195bbU,
  0xbd7344eb3d28a6f8U, 0x3e0e50b63d8b7146U, 0xbc124b873c44c125U, 0xbdb04ed5bdacf209U,
  0xbd863aa43e4b9341U, 0xbd93ed653dc32076U, 0x3e10c2573ceba277U, 0x3dcc1368bd888f3eU,
  0x3dc034183dba5fd7U, 0x3caf5305bdc4f4c1U, 0xbcfaec393d60d8a6U, 0xbd962f253d232e9cU,
  0xbe0559013d857a78U, 0xbdb90c23bdfee12aU, 0xbe0c7efe3d2fe8e0U, 0xbdcf4d7cbc79f1fdU,
  0xbd9c85cc3dddbb74U, 0x3d0babb5bda1828dU, 0x3dd3e1133d9182d8U, 0xbbd6b032bd93ad18U,
  0xbe21a175baf759f2U, 0x3d07101ebe032dc1U, 0xbd2735413dc4ee23U, 0xbe37330f3d24a907U,
  0xbdd127ccbd603246U, 0x3d9cb1743d3b47dbU, 0xbe0fb32d3d12866aU, 0xbe1fa85bbdde68beU,
  0x3b936cf33db2fdd4U, 0xbd9cccc3bd9b1930U, 0xbc07498abb1b3aeeU, 0x3cf9c6c4bce10b45U,
  0xbbd14906bc554d72U, 0x3d4dda6fbdf41de5U, 0x3dafade0bd9fe266U, 0x3d0bcddbbdc9f1fcU,
  0xbdd2e2d5bdcacfbfU, 0x3dcab0fe3dbe6dfeU, 0x3bd03f933d241dfaU, 0x3dfa3b87bd96cbc3U,
  0xbdef5e003dbfdb8bU, 0x3ce2ae62be51faf7U, 0xbddfd6e9bdd8b321U, 0x3baaa4debd429645U,
  0xbdc20e1cbe103385U, 0x3da6ebd93a735021U, 0xbd44d1cfbc741e3aU, 0x3c64bcfe3dc559b8U,
  0xbe305839bc4213b4U, 0x3dc0e129bcd4681aU, 0x3b9d3c7d3d77f4deU, 0xbd7fd0b33d6a8dcaU,
  0x3e388cfdbb9cb9baU, 0x3e2c78e8bd7b1eaaU, 0xbe1874f3bdc56131U, 0x3da21bcabca491c6U,
  0x3d4b182b3d82f4f9U, 0xbe4c2da0bda5e8aeU, 0x3dd42d6ebd9e86f1U, 0x3e0fac853cf4e2a8U,
  0xbe11ed82be10be5bU, 0x3b72c8e3bcf6aff2U, 0x3db5acc53d8a7938U, 0xbc8e2cef3de906b5U,
  0xbcd85af93e2030a2U, 0xbd94954b3cb47e05U, 0x3d7cfec53d14e3c1U, 0xbddfb451bba9f25aU,
  0x3cb138513e245253U, 0xbd06782a3d91f3ebU, 0x3e0c6893be1fd040U, 0x3ca72dfa3d610ae1U,
  0x3ba249673dd5273bU, 0x3ce3dd573e28638cU, 0xbde6a868bdc8c3a3U, 0xbe0325833c9dfcceU,
  0xbd43ac853ddf3746U, 0x3d057dafba9b4eabU, 0x3e03fac03ccb3418U, 0x3d993b23bd26051fU,
  0xbdc0afd8be290a06U, 0xbcbfa4d9bdabb5f1U, 0xbe0da51cbdbc447eU, 0xbd091ae93db62c81U,
  0xbd5019893d18de6eU, 0x3e8f48393dd9411dU, 0x3db4a9ae3d971d3fU, 0xbc66cc583db0a238U,
  0xbc8cf1043e079b19U, 0x3d77a1bebdd8cc08U, 0xbcd0387b3c102976U, 0x3cd63ed93d3ecb72U,
  0xbdadf5cfbd27e1dfU, 0x3df41f46be224b9aU, 0x3c300d66bd637420U, 0xbd2c662bbe20e12bU,
  0x3e12e17bbdecbd1fU, 0xbc61f7aebd318c0eU, 0x3d95da0c3d6c6319U, 0x3cd31832bdb85625U,
  0x3dd7c29b3de7c2d0U, 0x3ec0ad7abdad1497U, 0xbd88cb383ddaf0aeU, 0x3c64ca693d1bfae2U,
  0x3d10b80cbd15215aU, 0xbe0d2c743ddf8a99U, 0x3d861e4e3e04a12fU, 0x3dbc36973deca686U,
  0xbe27755e3db1c52dU, 0xbdb88c0bbba1d07fU, 0xbe0b2c093dde2244U, 0x3df56ccb3d9d2972U,
  0x3e39aef43dbe5648U, 0x3e27495a3dc34611U, 0xbc219fad3dae6551U, 0x3c2120babd6f5307U,
  0x3d6808663e30e4a9U, 0x3def70613d687e3eU, 0xbe0b24393df7c26cU, 0x3e1871ab3d991336U,
  0x3db8b595bb1f0646U, 0x3dcddff9bdf6928bU, 0x3df9cdbfbbe7b26eU, 0xbe08cd77bd4e6fe5U,
  0xbd98addf3d12d8faU, 0x3cd1a5db3d961168U, 0xbcd97b4f3d8ee13fU, 0xbd1342353b0259c1U,
  0xbb116770bdc3706fU, 0xbdb787b8bdd5cf1dU, 0xbd34eec6be42f953U, 0xbd07ab2cbd7f5af1U,
  0xbd42ed113e6ba963U, 0xbe04cc4e3cf8b6acU, 0x3db96668bdef3f6dU, 0xbca0b18b3da189a0U,
  0xbbfdc96abdbf6911U, 0xbca7a32a3dc865a7U, 0xbd9f1a7dbc638fb8U, 0xbe24bb58be312ec4U,
  0x3cb941293de80526U, 0x3ddff0d83e14ff07U, 0xbe25c470bcf91f67U, 0xbd23ad983e48cc19U,
  0xbdc6372ebdd58cc5U, 0xbd9cd758bd3566cbU, 0xbd90aa30bcca3226U, 0xbe1eaef83df0449dU,
  0xbe3afdc6bcafa34eU, 0x3dac9f533d180cf7U, 0x3e11f2473d7b1090U, 0x3da8d120bddd82eaU,
  0x3d6d65713d108f36U, 0xbd8af5fc3c7ada52U, 0x3d4dd681bdf2ca5eU, 0xbdbd3bc6bda27ef1U,
  0xbdfdea3bbd390a33U, 0xbd8421233dd48182U, 0xbd497f2f3dc9dff7U, 0x3d37d5febc44a291U,
  0x3dfa97313cb81590U, 0xbcc73d6bbdc78e84U, 0xbe11aaa83d9db619U, 0xbe1fe268bd57d71dU,
  0x3d23018dbd86dd3aU, 0x3e2939853d49a641U, 0xbe0fc717bbb8efbcU, 0x3c8acade3e002529U,
  0x3d4f926f3cfcbd97U, 0x3df69bf5bd3eba85U, 0xbd1c24aebcbf0c2dU, 0x3de5f049bb768408U,
  0xbd9ce9003c1850ebU, 0x3d0f3b18bd245244U, 0xbbee39e9bdc5a5a7U, 0x3c17fb313dcced39U,
  0xbd6446f8bdaf5723U, 0x3d4944c9bd592773U, 0x3b4a81383d7bdb07U, 0xbdd84e033d22f18eU,
  0x3d4699a43c9ae83cU, 0x3e32cb833d9d4ae3U, 0x3d6f6f173def3926U, 0xbc8183983e1a85c8U,
  0xbdb5649a3aab1cb3U, 0xbd06bf013c803d1aU, 0x3bbca91e3c8a0b8bU, 0x3e053a9d3da391adU,
  0xbcbe5029bd2a0746U, 0x3cec024ebe5839b7U, 0x3d8d714cbe073acfU, 0x3defb4723e497aaaU,
  0xbda9a4413db7a095U, 0xbdd820ed3d926560U, 0xbd966c793d75c154U, 0x3dac40213d903d98U,
  0xbde2b6123d9dbf90U, 0x3d0b5c9b3e05097dU, 0x3e0f34ae3d8247e1U, 0x3b1d2338bced6d05U,
  0xbdf86ca2bd8fae03U, 0xbdbf3126bdab354aU, 0xbdb508b6bc99fc56U, 0xbc01d40abdb7ea73U,
  0xbd3f19f23d826d5dU, 0x3da12d5a3dcb74b4U, 0x3ca792723cae440fU, 0xbd73a681bc8fd906U,
  0x3c2f13a6bba9e5e4U, 0x3cd7987bbbd394dcU, 0x3e2698dcbd31d381U, 0xbda3266d3d4ad499U,
  0xbd6af6503e4370bbU, 0x3e04ca35bd75ef14U, 0x3e26fdf7bd9f1e3cU, 0x3db9c4f23e4ae615U,
  0x3c71a9b9bbaa9abbU, 0xbccf2e123e68a933U, 0x3da5a9f83d1fb718U, 0x3e17d0d4bd2fd438U,
  0xbdbf5dce3dee6f3cU, 0x3dd4cd60be114d0dU, 0x3cc12dabbd9b8dc3U, 0xbc9b61983e21fdf3U,
  0xbe120d57bd59be29U, 0x3d8d7494be1c2098U, 0x3e075b9fbd0ab681U, 0xbbf2c8b7bdab5aa3U,
  0x3d807997bd962e81U, 0x3e4ec6febd88e41dU, 0xbd1571a5bcb72216U, 0x3d13810a3cfda2e3U,
  0x3d88bf053d75bd1eU, 0x3dc0ec923df3cf68U, 0xbd5943a33d0704aeU, 0x3d594fc83d387ce9U,
  0x3d3742e1bdc1b87dU, 0x3d7d51fcbdd827d7U, 0xbdc889093c119e6bU, 0xbd3f14b2bdd7c63aU,
  0xbdb3403bbd058144U, 0xbd8a95e63a0f801aU, 0xbdedd8dd3dfaf868U, 0x3b52b92a3d75ca58U,
  0xbe13bb89385a14b0U, 0x3e85aa6f3d37911eU, 0xbe012e40bd2aad12U, 0x3d066f1fbdc49c30U,
  0x3c3b39f73c86f8a2U, 0xbd9973a9bd42372cU, 0x3d0fc89e3c0f13ebU, 0x3dddc2273d816d60U,
  0x3daf0f75bddd92afU, 0x3d97be493da37066U, 0xbe036de93de2f52bU, 0x3c207cb5bde5fdafU,
  0x3dc114c8bde303ffU, 0x3e020e8f3da5e6bcU, 0xbdc3a66cbdba4d3dU, 0xbd6c3d3e3d6b6639U,
  0xbbff11b93d44dcb9U, 0x3e6bb0613dc0ef71U, 0xbd9de2dc3e10807bU, 0xbca239eb3e0e82c9U,
  0xbd909691bde6e007U, 0x3dd08c3fbc96d0fcU, 0x3c7d1936bd647e5fU, 0xbd88e3a03e116e66U,
  0x3d2a65ac3db3290eU, 0xbdccf2bbbd921219U, 0x3e0b0d183d72b4fdU, 0xbbf9198bbe2678b9U,
  0x3d208a6e3dcba48aU, 0x3dc6c0bebc572934U, 0x3dd7378c3d5d09a5U, 0x3e01c8cdbbc04d93U,
  0xbc0eee563e3f41deU, 0x3c31e9c5be1ef60fU, 0xbb837c733c680838U, 0x3c38b462bd9a950bU,
  0xbe15b52dbde47ec7U, 0xbd64f5ddbd7bb27eU, 0x3d7b314bbd31fa63U, 0xbdf7c699bd8f9882U,
  0xbdcd58ccbd9e5d05U, 0x3d101cb8bd85b276U, 0x3b9d7198bdc2bb93U, 0xbdecd9b5be073219U,
  0xbd849a5abd2efd4aU, 0xbd601b7dbe03f115U, 0xbd16273ebd7422f8U, 0xbe14ac9e3cfdae66U,
  0xbe5ac961bc388f58U, 0xbb783e583d707cb2U, 0xbe0368cdbcca81acU, 0xbdeefd5abd7f4d78U,
  0xbd8f5056bdc188fcU, 0xbe139242bcf39122U, 0xbd80b757bd551213U, 0xbd0bab2dbbea87afU,
  0x3b7e1eba3b992c9bU, 0xbe19df49bde23e25U, 0x3da3ffb43c26c94eU, 0xbde408a93e15ae2eU,
  0xbd45a3853db64e8cU, 0x3de956fdbdded212U, 0x3dd3eb0abda6bee3U, 0x3d56c3a83e108cc8U,
  0x3d1703da3d91924bU, 0x3e111a623b44fff9U, 0x3c8ad1a4bda8e3c1U, 0xbdda7c56bdc91f33U,
  0xbd3c95cebe06195eU, 0xbd1ea6143df87838U, 0xbd7d873ebdfc4453U, 0x3dd144c3bd1fe7c0U,
  0x3b9a5b093dca2fc7U, 0xbc96c5e43dbf247cU, 0xbd4c25e03c94b329U, 0x3b4a551b3dce5f77U,
  0xbe498793bda6beb6U, 0x3c0d4946bba92cf9U, 0x3df7650a3d8ec7bcU, 0xbe1998a7be36294fU,
  0xbc66a16a3e29fc05U, 0x3daf4f013ba302d7U, 0xbbb7ecacbe19683fU, 0xbe10d733bdac1d41U,
  0xbdbfe02e3de49a3aU, 0xbc1068853c348c52U, 0xbdb469bebe286d51U, 0xbe10a6103d8ddbdeU,
  0xbe404dcbbddc0fd4U, 0xbd7298153d7c8dabU, 0xbe493d3cbe4b6b8bU, 0xbda53ef3bd9d4ac6U,
  0x3dcfce6e3d8bfcfeU, 0xbd34a1803d830ad1U, 0x3e1541123d16e1b5U, 0x3be6d5753d7443b6U,
  0xbd1556f93d046614U, 0x3d593114bd1d348fU, 0xbe07beccbe11298eU, 0xbd29d2eabd1024bfU,
  0xbda6bfff3c8a2c5bU, 0xbe1d093b3b989a04U, 0x3d41ca45bdbf0613U, 0xbd831c70bd20f4d6U,
  0xbe3cbb3f3dac04a2U, 0x3da8a7fd3def89c6U, 0xbda3ed53be12faa1U, 0xbd09615a3db45133U,
  0x3d62ed69bc466fb2U, 0x3d0ff2e83dc4a008U, 0xbdaac45f3d898f52U, 0xbe0698c1bbe3be35U,
  0x3d9e70e2bbaec02eU, 0x3d9ef7bfbd16a668U, 0xbdafc5c4bdbaff3eU, 0xbdaa923a3d9e4ec0U,
  0x3d701c93be1be724U, 0xbe005227bdbec622U, 0x3b1c699ebe19b7c4U, 0x3d8d27f8bcd0bc38U,
  0x3cd83cf9bcf5d861U, 0xbd1080c93e21fdd2U, 0x3e0ea0a9bdade639U, 0xbda509c53d53341bU,
  0x3dcd0d64bd6414c1U, 0xbda934c5bda86142U, 0x3d9465e53e2e56f2U, 0xbe800665be0dbd79U,
  0x3e47f491be0f70adU, 0xbe01609bbd984776U, 0x3d0842b8be0674c6U, 0xbdbcca153ccc81b9U,
  0xbdcc1328bdae5bdfU, 0xbaa9e450bd1f9f3dU, 0x3db1d8583e28ad82U, 0x3df325583d501d8eU,
  0xbdea0151bcb95fd9U, 0x3ba4cb86bd7a7bfdU, 0x3db989c43deccbcdU, 0xbdd11155bdb2dc2aU,
  0x3d44f774be181ccbU, 0xbccf4007bd18defbU, 0x3d8726b03de74086U, 0xbd808a243debdcd4U,
  0x3e0a8a22ba3cd860U, 0x3dfb83763df90f55U, 0xbaf320723df9f71bU, 0xbd5f01b03db4dce4U,
  0xbdd59148bcd1b4c5U, 0x3c5203f7bdaae39cU, 0x3cdf699e3daea4d2U, 0x3dd494be3d868dfcU,
  0x3d3acf4bbdd9c44cU, 0xbcdc2866b7f7fd10U, 0x3d5530053d1c3c63U, 0xbe05db53bd1c307bU,
  0xbdf2916f3decc826U, 0x3c3c7fee3d5c0526U, 0xbda1f2fc3e0fe48bU, 0xbda3c35abdb98d6fU,
  0xbde66ce63e123364U, 0xbd37367d3d22daccU, 0xbd80177a3d224ec7U, 0xbcca6b653dccb338U,
  0xbdb78d613dd18a3cU, 0xbd915ec4bdc1943eU, 0x3c01e47b3d99e160U, 0xbd6acc45bd476861U,
  0xbdabebbf3deac688U, 0x3d83cf8ebe23e6ceU, 0xbd1514983db4915eU, 0x3d3950eb3c030f35U,
  0xbdfb43403df8f6c2U, 0xbd15f3483de6c0a3U, 0xbc81d9303da0b6cfU, 0xbd1a90bcbdc9f025U,
  0x3dbf4afd3d94e90fU, 0x3dcf819dbd97195bU, 0x3cebf479bca94b7cU, 0x3d83193cbda5478aU,
  0xbcdad3283d79297fU, 0x3e4d297bbdcde23eU, 0xbd0b0a943da31b43U, 0xbda415da3dd4a463U,
  0xbd51c542bde153dcU, 0xbb5eac00bda747cdU, 0xbe16ca513e049804U, 0x3df28552bc78ddbfU,
  0x3cdf23d03e46bf2bU, 0x3d9cc5c33e42a351U, 0xbd44c0b33e1dae8cU, 0x3d7f6a4dbcaeb5e3U,
  0xbdf7c0723d6aa843U, 0xbe15108e3d9aaac0U, 0xbd1c45cc3dec7166U, 0xbd1585cdbcabd128U,
  0x3d8e2dc53cb5eea8U, 0x3dcb453ebc38a5d4U, 0xbdb4a1c73e173afbU, 0xbca1ece73dc0a687U,
  0x3d708ed7bd8524ffU, 0xbd7a6a5f3dc2a321U, 0x3d798662bc8a402eU, 0x3dca63873e764c3dU,
  0xbd6d9b263e1d54fcU, 0x3d4863b4bd399869U, 0x3e168d953d9c0fafU, 0xbce01163bd67fcaeU,
  0x3e1b86153b6aeb40U, 0xbcc7c4663db2c629U, 0xbd4779b4bd944373U, 0x3e590684bd294052U,
  0x3d8edc593bfd4fafU, 0xbdbc77263d9a39e2U, 0x3e062f753db631e4U, 0xbd029c293dcbf414U,
  0xbdfee0633e03da58U, 0x3dad7a8abe994a4bU, 0x3cc84d553d8b48e1U, 0x3dc0aea13de65311U,
  0xbd98bd45be2da265U, 0x3e1472b6bbe0f066U, 0x3ca29b56be04a764U, 0xbdfd31143d355b64U,
  0xbba248fabe53da9fU, 0x3e8f282f3db3ac28U, 0xbd7da5c93e2030d4U, 0x3de10d17be1b9f8dU,
  0x3d32fd9c3db4ac66U, 0x3d38528fbdede1d2U, 0x3cfaa1eb3ccbe202U, 0xba6debe0bd5879a5U,
  0xbd8ed636bdbc48d0U, 0x3cafb754bd9f2e6dU, 0x3d2eea463c9129d2U, 0xbde1ee9fbd5a20bdU,
  0x3d4325afbde96c01U, 0xbe0e874cbd29fe16U, 0xbd3a9dc33dec00efU, 0xbba7c33c3de52e4eU,
  0x3cb5d7cabe1d0e4fU, 0x3d30afdd3c59798aU, 0x3dd0d7a9bc0b954aU, 0xbd41b4233b8ad955U,
  0xbce7626cbe05e6a0U, 0x3dbbd6c83dd4f518U, 0xbe005e99bdbf88f5U, 0x3da9eb5f3babe46fU,
  0x3d0a938cbe247ba2U, 0xbcffec20be084096U, 0x3aed36b73c9430a5U, 0x3dc3c05dbc8f000cU,
  0x3c8ff1743bc7c1a6U, 0x3cfd33f5bdaa019eU, 0xbc97834a3d883a14U, 0xbe000b82bd939740U,
  0xbda812983d2ca747U, 0xbcea48e2b9a453acU, 0x3d8c988f3b0bf7e6U, 0x3e23c89a3dd561a9U,
  0x3d1ca8ae3d66a7aeU, 0xbc14f6453d0d65efU, 0xbd7755e5bcd23236U, 0xbe210f8fbdf4a820U,
  0x3d843af13d33d914U, 0xbb00c1ad3c5fd1aaU, 0xbbce64353bec9605U, 0xbe37a4843cdde618U,
  0xbdc35e123dce67a5U, 0x3c89ead8bd51a5acU, 0x3d8dccaabd949794U, 0xbe00ddafbe031a8eU,
  0xbe0f98563e80bb08U, 0xbd863f503d6a3a69U, 0x3da2caa13d0f5edcU, 0x3d8f0936bd6720b1U,
  0xbd690eff3ce91d31U, 0xbdb9d3603dc17e57U, 0xbd4d30fc3d8ce09dU, 0x3dbb5f95bdbaad07U,
  0xbc6bcf583d678da2U, 0xbc825e143e044d6fU, 0x3c3415003c725b95U, 0x3d5149983ddd8f11U,
  0x3d87162abd2ad74aU, 0xbd0e47b13e250d3cU, 0xbceece633e0f8302U, 0xbda6da24be093df0U,
  0x3e4187f43e2c4eb0U, 0x3c394be1bdc67f98U, 0x3d2eb9713e0f3f03U, 0x3e62aa22be369fe5U,
  0x3df052cbbcd9ade0U, 0x3d9f104fbd44e4c7U, 0xbc9aabc33d358590U, 0xbd5c4aa63e251bfeU,
  0xbdf682bfbd933a73U, 0x3da30c3c3e41f59fU, 0x3de7cef13d59806fU, 0x3df9a949bd6e804eU,
  0x3db324babdb90965U, 0x3de178e4bccc4eb6U, 0x3dec77f2bd2bbc93U, 0x3ca1c4cdbd535fb0U,
  0xbd3c32cf3e473ce7U, 0xbdf4947dbd2ac06dU, 0x3d2cf6d2be018acbU, 0x3dfeaba2be0986feU,
  0xbdb68fc23d000421U, 0xbc2721653df6b83eU, 0xbd1da5a53d941a46U, 0x3dd6795abcbf3b9dU,
  0x3ac970dd3cd4f3a9U, 0xbd2dfe4dbb6f2f08U, 0xbd398eb8bb4d3211U, 0x3e0b41bd3cfbf918U,
  0x3ce0cf24be0ab04fU, 0xbe5e97bfbdf7c53dU, 0x3e1cd6033b45459aU, 0xbe3491013d8627f2U,
  0xbe3bbf8abd478816U, 0x3b683ccfbbf89262U, 0xbdbee88cbcc83120U, 0xbbee7cab3db5d914U,
  0xbd074e68be05e741U, 0xbe092f51bd85668fU, 0xbd9f08e8bddbaa4eU, 0x3d6d37e4be5e67e3U,
  0x3e0a6955bd917348U, 0xbe141dcdbe20d18eU, 0xbdec5c13be08d6ecU, 0xbd9aff9f3dffb511U,
  0xbdc9c3e1be51d00eU, 0xbd9cce45bd98652eU, 0x3e17f40bbd6ea638U, 0xbdff6c0a3dcfc966U,
  0xbd627e03bd2fe8b9U, 0x3db010ce3e0d21baU, 0xbb0eaf74bbc6d883U, 0xbe645d483a92a201U,
  0xbc6add773d31531dU, 0xbc07b6703c952024U, 0x3e0903d3be31570bU, 0x3d0ba62d3c409ab9U,
  0x3c65e4503d903724U, 0xbb9a2ad6bbbdb1aaU, 0xbe27aebdbda6b733U, 0xbc9674ad3dca439dU,
  0xbd42c18fbce1247eU, 0x3d1eeeb6bd46a65aU, 0xbdde1252be3e56e4U, 0x3d45c8c03d5b78aaU,
  0xbd5995dabe65a34aU, 0x3daeed163db0803fU, 0x3e5c2cc9bcb33e24U, 0xba4150203df1890dU,
  0xbde3c1103de0cca7U, 0xbd3e36a13d710465U, 0xbc8116aabde9ed45U, 0xbd80365f3d5aedc5U,
  0x3ce264773dba6000U, 0x3da6527dbd416b02U, 0x3e2286233d7e0cbbU, 0x3d462272bd3df568U,
  0x3bd530513e33bc3eU, 0x3e06c0ee3b062aa2U, 0xbd130c0c3d8fd77fU, 0x3d0b9fbf3ddcfa72U,
  0x3d0772ca3dada3fcU, 0x3da1778b3a15aa34U, 0xbc20f622bd0c44f9U, 0x3e06f8943da24fe0U,
  0x3e30ae4cbdf5fdb5U, 0xbdc0c8bfbd558367U, 0x3dc0008c3e3078e4U, 0xbd217b053d997360U,
  0xbdcd67123d73c615U, 0xbd1b7d7d3da0839aU, 0x3e023e89bd9e39f0U, 0x3d516f163dd6f065U,
  0xbb485eb4bd83146cU, 0x3c89babbbcbb3c8fU, 0x3c11dfff3d1b3d59U, 0xba1f07e2bd8746c6U,
  0x3e1427a53e327669U, 0x3dd254d33d0e7d75U, 0xbe0788ac3dbb5d5fU, 0xbe059925bd5fffb1U,
  0xbaaf4dbcbd9ab4c0U, 0xbde78b57bc997a81U, 0x3e3a82f73d58ba0eU, 0x3ce982893d3fd068U,
  0xbe06dd523df5c818U, 0xbce54610bd30d907U, 0xbdefdd9dbcb8cf3cU, 0x3dee1fa53e36488eU,
  0x3bffabd53c6c8b7dU, 0x3dbf07e4bd9788b9U, 0xbcecb5b43c79eae7U, 0xbe3b24073dec20a7U,
  0xbdf8bc123e6e9e38U, 0x3e30b32ebe012087U, 0xbd9277d63dc4979bU, 0xbe02cf91bdccd097U,
  0xbdd846fcbdee2523U, 0xbd076457bd96ae43U, 0x3bda5e51bd96eb74U, 0x3b95f3a43db2eaf8U,
  0x3d84db2f3c86d4b1U, 0x3c80013a3d752867U, 0xbce1d168bced3185U, 0x3dd99280bd3d5823U,
  0x3d13a7443d6ab0f3U, 0x3d599e073cb9b852U, 0x3de87b26bcd2f080U, 0xbdaa88c53bf3fda2U,
  0xbd0ef850bd8869bfU, 0x3da59ae5bc50f160U, 0x3d3211ff3d07e08bU, 0xbd0f11e7bdf3d030U,
  0x3cee66eb3dccf40fU, 0xbb985ababdc759b3U, 0xbdf5be733dce5addU, 0xbd9dfc09bd9bb43eU,
  0x3d609ca13ddf88e5U, 0xbde317ddbd8d3295U, 0x3d90b7173d294aa6U, 0xbe1820193dc0e57cU,
  0x3ba3b913bd650119U, 0x3d329fa33ce8a375U, 0xbda462c7be00e821U, 0xbe1031ebbc986851U,
  0xbe109ef7bdde1478U, 0x3d3197d83e00d892U, 0x3dd439fdbe132363U, 0xbdab34003df885ffU,
  0xbe0ef1813cf21b27U, 0xbc5d2cc13e09ebe4U, 0x3daf3367be122bb7U, 0xbe0724c1bd858e58U,
  0x3d6aeb423d890fc9U, 0x3d24a8bebe057ad7U, 0xbc7bf0d33dcd9c55U, 0x3e1de9adbc3b59e1U,
  0x3d913ba7bda65e31U, 0xbbc5be043daa4a53U, 0xbd231513bcbe2759U, 0x3b85eefc3d07e890U,
  0xbbae56703c26a56bU, 0x3ca59040bd765f58U, 0x3df7f3c73d95ea22U, 0x3d023dc1bd9f4b96U,
  0xbdc7679dbcecd13eU, 0x3d54d884bcee8ca4U, 0x3e2720a93c0bf66fU, 0x3ded67ec3d9ed418U,
  0xbd939905bddde4ecU, 0x3dcf2604bc18311bU, 0x3d9e61af3dddc7a0U, 0xbda46f36be20d283U,
  0x3d3156d03db93684U, 0x3de325473dd2660aU, 0xbd036d043c8eef8aU, 0xbd88cca3be1e369cU,
  0x3db95be4bddc1d2cU, 0xbdba4ed43d278b4cU, 0x3df976a63d9e6300U, 0x3e121772bd2d9286U,
  0xba6f9eb13d929662U, 0xbdbdf4ddbdb30b36U, 0xbd873ea8bb3da2dbU, 0xbde6b2563d99a13eU,
  0x3da52490bdf54bdaU, 0x3de6a576bd372b27U, 0xbc4d4413bdcaf7c6U, 0x3d80ad0cbca1e484U,
  0x3e0ae8e7bc9c01a2U, 0x3d08c2bfbdf50461U, 0x3da45f393d7c0c7bU, 0xbdc6aa3e3dad7f46U,
  0xbdd861a3be1d031dU, 0x3dc4cf34bda24c69U, 0x3e0cd7763ddf77fcU, 0xbbc553ebbde01c9dU,
  0x3bc694cc3d85b976U, 0xbd2654bebdf7115bU, 0xbd308ba03d85aa7fU, 0x3da1af35bd4f9009U,
  0x3dfff896be045ab3U, 0xbdd91cf1bdc96410U, 0xbde2d301bd36d4e5U, 0x3d084fc63d8dd359U,
  0x3e574474bdd3a7f4U, 0xbddeffc53cb83458U, 0xbcacdcc9badc333aU, 0x3d08b8b33d4b3a02U,
  0xbced3fc93d9be222U, 0x3db79ee73c0abdd5U, 0x3d05f1ae3c5973b5U, 0x3c8697b0bd3b6222U,
  0x3de5c8553d95a4a7U, 0x3c73298c3e067f5fU, 0x3d961726bd5df5f8U, 0xbca097aebd95707fU,
  0x3d77a8efbde8acbcU, 0xbd2ba197bd64302eU, 0xbd326d9ebe51dc46U, 0x3de27e11bdf2b263U,
  0x3e42b007be23c0daU, 0xbd0ec95cbdcfda24U, 0x3d8946133dbcc9baU, 0x3da2a78fbd3cfbc0U,
  0xbe2cd92a3d859ddeU, 0xbcc89ea9bd4aeb28U, 0x3d6b045e3de41b61U, 0xbe391c593dcd48aaU,
  0xbdd82ffe3db7e12aU, 0x3c86a47abc5b0a38U, 0x3e17f8493df9799aU, 0x3d372fadbce3f7e0U,
  0xbd34adfb3e08e230U, 0xbdc58e383a4473bfU, 0x3d91ad203e2db28cU, 0xbcef640a3e0c34e8U,
  0xbce856c0be0dfb8fU, 0x3cd3f12b3ca63f76U, 0x3d4aa6e23de6ffe2U, 0x3dbfa9703d4a29e2U,
  0xbdac13f03dcd5c81U, 0xbd81571e3cc0922cU, 0x3c8e7ee63dc73bf2U, 0x3dd2d7f93d063ad9U,
  0xbdc321ff3e0de05eU, 0x3c047f6abdf7d5b7U, 0x3ccbdc4a3d99aeb1U, 0x3c9ce9243c95c8c8U,
  0xbd2c3b0e3e164c68U, 0x3e101d663dbfbb14U, 0x3ccb33de3dd920b3U, 0xbd8aa2b33e651554U,
  0xbd9c01ce3d49fcdbU, 0x3de9e8873de54548U, 0xbb641a713d29010aU, 0xbd543cbd3d2c687dU,
  0xbe0795bd3e42731bU, 0x3e064ee13dddae37U, 0xbc5413ad3db4f76eU, 0x3df457153cbff08dU,
  0xbc037dde3dbc0a47U, 0xbce05c3d3dbc04f5U, 0xbc8ec4563c740823U, 0xbe05ca0fbd875188U,
  0x3d16bd853d940b51U, 0x3b72e083bd7ce493U, 0x3e1a65953cffce6aU, 0x3cffd5b1bd411e72U,
  0xbde8c4fd3dad111eU, 0xbdc351e13d3f4871U, 0xbd050a023d36173eU, 0xbe10228dbce78c66U,
  0x3d887edabd9b99c0U, 0x3cc5432d3d855e25U, 0x3bf61fb8bcdefb11U, 0x3c6c4d303dad2040U,
  0x3bdcef463d2f0c46U, 0x3c6a26693cf25e4bU, 0x3dcc801dbce48a5eU, 0x3d5186003dd1d40fU,
  0xbdfbfc5c3d462738U, 0xbd43ed59be3f8b92U, 0xbdf15f4c3d4d175aU, 0xbde4f59f3d0731b1U,
  0xbdd8bf27bd9e6a05U, 0x3d89383ebd0c5fddU, 0xbd95ee85bd5be6a0U, 0xbe3031ccbd98f52aU,
  0x3d056b4dbc2c9ba2U, 0xbe05fdf9bcc1eb17U, 0x3d4a716ebdf94eeeU, 0xbdbdee9cbbd660d2U,
  0x3d897b34bd450eeaU, 0x3da01229bc7ef1a2U, 0xbd00cf883d826b9fU, 0xbda57e9abdc9977cU,
  0x3d9fe538bdd8c6c2U, 0xbd988631bad15720U, 0xbe455af6be219a7eU, 0x3cdc9736be0858f3U,
  0xbd96340cbda3e2b4U, 0xbdbf4aa2be279501U, 0x3d8ccf7fbd4f0d56U, 0xbcb9615cbdf2181bU,
  0x3c8423413e1a8d1bU, 0xbe26e71b3c495ed0U, 0x3c787c20bc5c9f4eU, 0x3d889f8cbde07b0aU,
  0xbd95adc23c9581c0U, 0x3c3d64a6be11b400U, 0x3df564e13ddd042aU, 0xbda9cfcc3dc52c13U,
  0x3d9246f23defbfb6U, 0x3c413ba7bcfbb396U, 0xbc31b9e0bdafc4d5U, 0x3d1056b93db90d54U,
  0x3d0614943dbd7fb2U, 0xbd004ade3d1fdd29U, 0xbcc44ada3d8de7baU, 0xbd505f783c3c33a5U,
  0x3d630af7b82e73a0U, 0x3dd0f76bbcc28e50U, 0x38e35c203c53b397U, 0x3d813fed3c8632c6U,
  0xbcc8a3733d968045U, 0xbcaa6badbcc91050U, 0xbcd1faaabc535ed5U, 0xbd26cd01bd456250U,
  0x3da63d20bde7c6b8U, 0xbd7353753d410dc4U, 0xbd0fcfb73c9c9b9cU, 0xbda2cf41bc5d0d3fU,
  0xbcaf4f143dadd569U, 0xbcb9ec76bd2ae427U, 0xbd21760fbcd54e94U, 0x3c05b6693d909acbU,
  0x3c5b848d3dc668f4U, 0xbdf0eacf3e22f7a9U, 0xbbc37a1cbceeda97U, 0xbda023a63ceca555U,
  0xbd9f643bbdd695f1U, 0x3d99b1e13e155f69U, 0x3e3d445f3cd0f461U, 0xbbc97254bbd9f32eU,
  0xbe151ac2bd95410aU, 0x3d8d8c373dc07628U, 0x3bd63c4bbd375c4fU, 0xbe05cce83cc40f67U,
  0xbe052362be1ac662U, 0x3de8085c39d659a8U, 0xbdf48178be22fce0U, 0xbba9d049be2dded0U,
  0xbe1806a7bd9a56e8U, 0x3d30109a3da98fb5U, 0xbe0f89febd465407U, 0xbd678d5a3e2cd8beU,
  0xbd8d41913c149f06U, 0xbdada6ebbdb8ab6eU, 0x3dced9553dc6cc97U, 0xbd87fccf3e1f4e53U,
  0xbd910b483dd91063U, 0xbc9a5024bd20d393U, 0x3e1f3edebdbdc7fbU, 0x3deb5e1cbd5afdddU,
  0xbcf59e8dbd9462b0U, 0xbdb70deabd5ed8f8U, 0x3d056b60be78c52dU, 0x3df005663d85edf8U,
  0xbc9af8edbde4d1e4U, 0xbe40bccbbd80e055U, 0xbd9d6725bc3feb84U, 0x3d60a127bd94c2abU,
  0x3d4858fb3d9e9b38U, 0x3e2ecaf83d7ecba0U, 0x3d7f9e473d69db63U, 0x3d982d5b3d9f1006U,
  0x3d812b4a3c63e058U, 0xbdb564e63da7da92U, 0xbd7e8ad3bd923e3eU, 0x3cba89e3bd88602dU,
  0xbe08d0fdbdf58ddeU, 0x3e118191bd446ff3U, 0x3cfeb841be5586dbU, 0xbd217c7dbe11a750U,
  0xbd26988fbd4eece4U, 0xbdade65e3c69a764U, 0x3d88fc093d917ec6U, 0xbe5603d5be43a28eU,
  0xbe28e2ffbd3c2ac2U, 0x3d7f20c73d681e46U, 0x3ccc9f44bd809ebdU, 0x3d20826abcf984aaU,
  0x3e0660efbd1ce0c9U, 0xbcf90f34bbe219d5U, 0xbe1af2c2bd8aecd3U, 0x3bd52900be25446bU,
  0xbdbfe4843d75d547U, 0xbc0af3c03e190dd7U, 0xbcd488403df6749dU, 0x3b9dc44cbcfe4026U,
  0x3d0774373d97bcfaU, 0x3d577ae73dd92da5U, 0xbaa3124fbe09bfd4U, 0x3dd11ca4bd9f7f65U,
  0xbd80dab9bdb6e81aU, 0xbd2ecc2fbe5182a8U, 0x3ce159c9bd9bd8bcU, 0x3def1c43bdad5a0dU,
  0x3d6ed7f6be45d131U, 0x3ca24a65bbf5be4aU, 0xbd052cd8bde4f0a1U, 0x3e0636c23dedb955U,
  0xbd37f2613d857544U, 0xbd640aebbc59a834U, 0x3d8eb66fbd02777dU, 0x3db3c9963d847a9dU,
  0xbe249bfe3e161668U, 0xbdbeeb533d8129edU, 0xbceab62bbd56b06fU, 0xbd4c703f3e0c6225U,
  0xbe3376af3d8ff44bU, 0xbda567f9bdf704a3U, 0xbe1e2a49bd866a2fU, 0xbdf043ecbd905a0cU,
  0xbd9a7cdb3e09ab9cU, 0x3d7e35643d6242bcU, 0x3db1d35bb8ea1ea8U, 0xbde99a09bdc724a4U,
  0x3cfb03f3bc62aa3fU, 0xbdc4dea8bd5e4518U, 0xbdb48d3ebe5fbe2cU, 0x3dd957283d9907cfU,
  0xbdc0aeb93df73f98U, 0xbe5a72da3c995d0bU, 0x3e2db2a83d1d9635U, 0xbd3552693d30e177U,
  0x3c95853f3d568f17U, 0xbd9363d33df23817U, 0x3e01e5cf3db408e0U, 0x3d9aefce3dec2206U,
  0x3c330dc8bc88cf60U, 0x3cbcd2d1bd6da31aU, 0x3db45b26bd0ffbf2U, 0x3d02fa723c0f3f52U,
  0xbde527fcbbf7f18eU, 0xbe122fb93d77891fU, 0xbd9a243a3d7832d7U, 0x3d70ab7f3cb65b3fU,
  0xbdaefaf6bd9ca0f7U, 0x3d9b962a3e211e23U, 0xbdbdc7da3e02b9aaU, 0x3dccddac3de05869U,
  0xbd589e15bcda817fU, 0x3c27b9f13e05a786U, 0x3d67c0c93dc87338U, 0x3ce806b63c5211daU,
  0xbc9d6cf0bda7891eU, 0x3daf1be93d8b7bf7U, 0x3e2c2570bd5467baU, 0x3d9538afbdb2fb76U,
  0x3d7dfdc3be83b74aU, 0xbde32c6e3db8966fU, 0x3d8735a3be27dbdaU, 0xbdab14ffbc7fd83cU,
  0x3e01109c3dbccf99U, 0xbe2eafb53dce87b6U, 0x3cde0a9cbc8a95e3U, 0x3d860c803dbf0d73U,
  0xbe5b4e3f3bc7849cU, 0xbdafd4a1bde4453dU, 0xbe2babe9bc22d4e3U, 0x3c0752773d647288U,
  0xbe158b273dac7258U, 0xbdf5f0e5be00f7aaU, 0xbd246d73bdebec19U, 0xbd91fd91bcdbd1d7U,
  0x3d56bbcfbd29f0e5U, 0x3d7768b3bca5372cU, 0xbe8cc62dbbe30b45U, 0xbced78f83dc4c0afU,
  0x3d144574bd6ca689U, 0x3dc4ef323dcad053U, 0x3dfb3f53be26f7b1U, 0xbdec4c253c8dbcfcU,
  0xbdf4d25bbdbc7c23U, 0xbd8c98cfbcc33fe3U, 0x3d28d092be5063a5U, 0x3d011098be05347dU,
  0xbe436ab6bdebf224U, 0x3da700913db8436eU, 0xbc2ce148bd24a097U, 0xbe9a2897bde21e5cU,
  0x3d9fccc13d8739c7U, 0x3d9553d73ce82c82U, 0xbe6c342c3deaaffbU, 0xbe0fb2f8bdcb49b3U,
  0xbc888c6f3ca4b696U, 0x3cf10d92bdd50350U, 0xbde66ee23d64afccU, 0xbddabe303e50590bU,
  0x3c97a1f13d3b5341U, 0x3dd0c512bd4309e7U, 0xbd67e6a23b531912U, 0xbe4dac06bbeb4753U,
  0xbdc7e330bd9453d9U, 0xbd89ad6fbde78337U, 0xbd95c80abdd085aeU, 0xbd54096c3ce9ad9bU,
  0x3d63f4113c56fbe8U, 0x3d4a11e53d93e915U, 0xbde2b0c63d836f44U, 0x3a7b5909be0fcda5U,
  0x3c8a295bbe307e2cU, 0xbe1cf710bbed54d0U, 0xbd968feeb8cd3f19U, 0x3d86c6cf3d22e57dU,
  0xbab9d6283def08a9U, 0xbe1effbd3d167ca6U, 0x3c3e306abd9b9971U, 0xbe5e7f4c3dbfc9afU,
  0x3cd177b33dd27968U, 0xbdfce37ebe352b77U, 0x3ce4f2dcbe13facfU, 0x3d5634ab3ce2ec83U,
  0xbe05ba203dab881aU, 0xbe0678ac3e094ca8U, 0x3e1190353df8a6feU, 0xbe0b03d53d527a34U,
  0xbd93c912be275446U, 0x3e3a58543dcaa846U, 0x3d92b98b3e16d7c3U, 0xbc3041d5bcef121dU,
  0xbdcd55e1be4eab6dU, 0xbe3daef23d1ba924U, 0x3d3ac440bce6ac1cU, 0xbd92b0cdbe652aecU,
  0x3e0fa7f7bdedeb58U, 0xbe0317d13d99b75bU, 0xbd6078093d2800c7U, 0x3ccb84c3be1dc096U,
  0x3d6188edbe18f73dU, 0xbd86cbfc3e0c283dU, 0xbd21cc38bd847f31U, 0x3d176adc3e147699U,
  0x3d0a408a3c0b6d81U, 0xbe2c688f3dc675a2U, 0xbdf2439abd876ce2U, 0x3d4462413bf39657U,
  0x3e218d58be0517a6U, 0xbd9b06fcbd6dd4b4U, 0x3e0e52203e2d9961U, 0x3de2073e3d1dc2a3U,
  0xbdc565233dfba3b6U, 0x3e437b0ebd686ddaU, 0xbd9b14183ce06e64U, 0xbe1cd6ed3cad0c64U,
  0x3d83f0c33dea104fU, 0xbd3012f4bd3ba005U, 0xbdbde8553e11bb77U, 0xbd53ae1f3db01b56U,
  0x3dcb572d3d169f54U, 0x3d8018a8bd49579bU, 0x3d99493fbb630c12U, 0x3de7ece43d91b5ebU,
  0x3d50992b3d8dc2a0U, 0x3e330f8dbe1adfd2U, 0xbd52a1113dfcc71cU, 0xbd8c9069bd9e7344U,
  0x3da4c3d73e00b51eU, 0xbde9248b3d717ca6U, 0xbc59f6d4bd882805U, 0xbe5ad06abe40104aU,
  0x3dd935093d947242U, 0x3da0c354bda16d34U, 0xbddcbeff3e0b42c4U, 0x3cbdbdaebdba99e5U,
  0xbd79f6843c08846aU, 0xbb17ed0f3dee1dbcU, 0xbd1e1bbd3c15475eU, 0x3ce4cebe3d5ee0f9U,
  0xbd677a52bc81eb90U, 0x3e225e7e3e296624U, 0x3d1472a1be610899U, 0x3d6ec3913be2fd94U,
  0x3ceeb86f3ddb2003U, 0xbdb811abbc0d84a8U, 0x3e89d830bdea9755U, 0xbdfa5e9dbdbb5ab2U,
  0x3d9d0fe83cb635b7U, 0xbcebecf4bdbe9592U, 0xbdf64c553d54c773U, 0xbdd808f9be15f005U,
  0x3df1c7c13dab1964U, 0x3dfe9d0b3ce79e5eU, 0x3d03739d3d5a5913U, 0xbd807ee73de19483U,
  0xbdb172643d9673b5U, 0xbdc2d3d2bce48212U, 0xbc0c93dcbe6a9054U, 0x3dfb657dbcea59b6U,
  0x3df5723fbca1d4b6U, 0xbe50ccb0bd62aecaU, 0xbc93eefebd1e59eeU, 0x3bda126fbe5ed5e2U,
  0xbd97b376bd982c83U, 0xbdcf9c5d3d671a48U, 0xbdb42db53da51880U, 0xbd9687313cf8f9abU,
  0x3e030365bd742f7eU, 0xbd29dabdbced719eU, 0x3e134bea3db02b46U, 0xbe5de7203c5df91aU,
  0xbda3f3713dc60afdU, 0x3c84b5b23c14ec1fU, 0x3d3528c0be674b30U, 0xbdc7d432bdd8515cU,
  0x3d6f3ec93dcc6ec2U, 0x3c2a6b6c3dd5bfa3U, 0x3dc143b8bd641617U, 0x3e5cef803d308700U,
  0xbe04aebd3da6702cU, 0x3b7d48063da1980cU, 0x3dcad0e3bc82d97eU, 0x3df21b7c3d417adbU,
  0x3bb68580bbb91cb5U, 0x3d6b85f9bd3c5bd5U, 0xbdc7f4cdbd9bee5eU, 0xbde05356be2cb103U,
  0xbd33ca2cbd951511U, 0xbdfb946d3cc7f4f7U, 0xb88c584c3d0abe56U, 0xbd9e6037bdac3832U,
  0xbcb88d39bd24ea3dU, 0xbe173040bddebfc3U, 0xbe32332a3ddd7b4fU, 0x3eb6dc8f3de5bac2U,
  0xbd8dff6abd234953U, 0x3dc80498bc58c48dU, 0x3da2e9553d266431U, 0x3cb9b5d53d8a352fU,
  0x3d204c0abd2a415fU, 0x3e4479cfbe69234bU, 0xbe502fefbe1c9c10U, 0x3d978151bd9d244aU,
  0x3ce4460dbdf48576U, 0xbd8b1a90bdc9c8f5U, 0x3d8c6df03e0ca8e6U, 0x3c81fa77bdd35daeU,
  0x3cc20c4e3c043403U, 0xbd6910ddbe2b42a3U, 0xbceafa1f3d143b49U, 0xbdcbc5fd3de51922U,
  0x3d6e60dc3e381db4U, 0x3c24099ebdd7ec4bU, 0x3c77b462bd5973f1U, 0x3da6f444bd83a936U,
  0x3e60816bbd3b56edU, 0xbd8de886bcd93a16U, 0x3c2c5027baec9b4cU, 0xbdb298fd3e28e8a6U,
  0xbd3cdb733e253bf5U, 0x3e1b9781bda33275U, 0x3d18c6bb3dd2a60aU, 0xbdfedbe23c912534U,
  0xbe464398bd673f15U, 0x3da68efebcd3a1a4U, 0x3e04ef2cbdccf677U, 0x3d989484be2093efU,
  0x3df847c23d3e9384U, 0xbd574ef6bde490c9U, 0xbc904342bd9d78c6U, 0xbe1252cd3d3d6a8eU,
  0xbe23aca2bdb07ac1U, 0xbdb1551e3d99b2e1U, 0x3c97b03b3d6bf985U, 0x3d906160bd32ae2cU,
  0xbd7ebcd03b7154a5U, 0xbca4bd5abdf25cd5U, 0x3abeba503d958bd8U, 0x3c7a55f63db046ceU,
  0x3d23e7573de6b6e8U, 0xbda96348be08c633U, 0x3d4c756bbe4f94dbU, 0xbdf82f62bddd04deU,
  0xbe0488043d97b2f1U, 0xbdcdc23ebd7cae63U, 0xbde2c5283e04fe62U, 0xbe4e9e3c3d8b4e4cU,
  0xbd8fd271bd6629bfU, 0x3d776872bca42948U, 0xbe172126bd8d9696U, 0x3d823dbb3deed7b9U,
  0xbd3b2ca03d82de8aU, 0xbaaa0326bdf382c2U, 0xbd4b588cbdf9631aU, 0xbcd881573dcac578U,
  0xbdfa84b3bdc5855fU, 0xbe1f4ac6bdb51e53U, 0x3cfa9db8be33cd48U, 0xbe2c003dbe15aac0U,
  0xbe4b28f7bdf00094U, 0xbb535cd03dd4fbd2U, 0x3d255dec3cfe61c6U, 0xbcbc1464bd4274eaU,
  0x3d4eeb45be1f5436U, 0xbdaab3b33ddcc041U, 0x3d220ff23cf637f9U, 0xbe85c2e33d28f513U,
  0x3cba7d91bd82aa01U, 0xbdd0ff27be5341abU, 0x3c16619d3dbf8390U, 0xbe08270bbd2e0395U,
  0xbe3014d63cabfa21U, 0xbddc36e4bd2b3adaU, 0x3e042c2a3c4bc1bfU, 0xbcb7a4bbbcb2e801U,
  0xbe2ade2bbe5e7211U, 0xbddce225bdbed5d0U, 0x3d6273103de6adfeU, 0x3d1c40b83cb986fbU,
  0x3d9511563d3126afU, 0xbd976451bd0c1090U, 0xbe3602963d4009e3U, 0xbe4e27153dcd5877U,
  0xbc7c5904be1dc8b7U, 0xbe32c360bd8aecbaU, 0xbd3fbbb7bbef41e6U, 0xbbfcbd37be1d3482U,
  0xbb8e81a03dd5a699U, 0xbd79438c3cff2dd8U, 0x3d8437b8bdc7b624U, 0xbe61f765be5e4b3aU,
  0xbde20d443e1baf82U, 0xbe0515493ca71f54U, 0xbb35ac00be5517e7U, 0xbd78ff0d3d929f8fU,
  0xbe1dfaf63de631c4U, 0xbcaed5903d3dfac8U, 0xbd797e03bd985db8U, 0x3d284625bd4b2fedU,
  0xbde125a0bd505f8eU, 0xbe06c83b3d6fb5b3U, 0xbe19a6533dd3f7e7U, 0x3d75926e3cf39987U,
  0xbcc4406a3e0577e6U, 0x3dceea2abcf39ae3U, 0x3c8c132d3dff95bfU, 0x3dcd68d5bdcbe8b5U,
  0x3cbb8bb0bdde92b1U, 0x3dd1855abdb30784U, 0x3cd629adbd93b623U, 0x3d28f2503bfba0c5U,
  0x3dbd0c083d4f948eU, 0xbe494b1b3e20d2e7U, 0x3d72815fbbaf2193U, 0xbc6c5c6ebda0cc4cU,
  0xbdcaf96a3cca62b0U, 0x3d8100983e129125U, 0xbd33f786bc24bca2U, 0xbc3f3c09bdca44c4U,
  0xbdd3085f3d855cceU, 0x3d5000503d2b5c8eU, 0xbd5d201f3e0a0b0bU, 0xbd634f9abe1fe5ddU,
  0xbdd3b317be1886d5U, 0xbe0ab8c6bdfbf1c3U, 0xbd88ea3e3e821daaU, 0x3bcfd070bdbc8c99U,
  0xbe13b4cc3beb675fU, 0x3e06709abe01b5a3U, 0xbd81480a3db2154eU, 0xbd98e6a9bc4ad12dU,
  0x3cedbc06bd5ac125U, 0xbc877274bd0c71b6U, 0x3ca07f96be2ee07aU, 0xbb76aa9dbca85cb4U,
  0xbe339e9c3ddb8196U, 0xbc20a3f63c2c39b5U, 0x3d2b17f4bde5660eU, 0x3dbabc333c47df95U,
  0x3dbb9baabd94da7aU, 0x3d4ab68a3dddd36aU, 0xbda60a45bdc488c5U, 0xbd245df6bc3ebf73U,
  0xbc0dc0e23ca8d1ebU, 0x3e01c5f43cd95698U, 0x3df186983d131c62U, 0x3d0b9cb23c31f8e4U,
  0xbd700057b9d749a5U, 0xbe0e16f7bd8661aaU, 0xbd98cb17bd362228U, 0x3e10c7623d300371U,
  0xbdcedf19bdf081edU, 0x3ddf37303e1d755cU, 0x3e10a9ad3d8ea52dU, 0x3e06d8923d93593eU,
  0xbc77caacbd09bbb5U, 0x3d1573dbbe4a177bU, 0xbd03a36a3d6cadcfU, 0xbdfc45f4be7ee0fcU,
  0xbd25581fbae246ddU, 0xbc7f7cb23dc674adU, 0x3dcca1d0b90525b4U, 0x3dc537f1be76b0bdU,
  0xbde5f0f33d98f121U, 0xbc5f4f23be88d4c4U, 0xbdbf2a59bdd263dcU, 0x3dff71bfbe152103U,
  0xbd46949abe1693f1U, 0xbd8c527abe112812U, 0xbe0171dbbe0617efU, 0xbe8248d23cc0f312U,
  0x3d9e070d3de7cb4eU, 0xbd5ea9783dfe27e9U, 0x3b7dada3bda9d73cU, 0xbd1655653de8a614U,
  0x3d9c9dacbdeeadf3U, 0xbdb2e49dbcf780ebU, 0xbd8317e8bdc17ba1U, 0xbc59dce1be1a0e21U,
  0x3d15a9523a6d1ae0U, 0xbd55aa9e3db5ae15U, 0x3dc204d6bd2bae6bU, 0xbc451e873de2248eU,
  0x3e123146bbefee7fU, 0x3c04aab33c7b87b3U, 0xbd818e45be0081dbU, 0xbdaf1661bce3b4a2U,
  0xbde4e9283cbb4153U, 0xbdeb69c03c881ef6U, 0x3e17818c3e50ce45U, 0x3dd080d9bd2700fdU,
  0xbde9b3863db808a2U, 0xbe1a3011be249f52U, 0xbe417d053be8bb1dU, 0xbdb9705ebd6a3ac3U,
  0xbc3bd94bbd95359aU, 0xbe0be9eebdcef44dU, 0xbc45eef4bc8a21e9U, 0xbd94b3193b528753U,
  0xbd07fc8e3c7d08f8U, 0xbd82ae5d3dc1510fU, 0x3caa4a293d846538U, 0xbe81d973bd93483aU,
  0xbd4dff233bb37596U, 0xbda76042bdc45323U, 0xbe2905793d0a9a4aU, 0x3e1605403d947758U,
  0x3d239b3ebe1a8169U, 0x3e3ade7cbdb6c54eU, 0xbe0c6d763dc342bcU, 0xbdb4d5253dd94f6eU,
  0x3e43257ebcfbe30fU, 0x3e043366bded22e8U, 0x3e0515c23d8c2b62U, 0x3d887a8fbd11f91bU,
  0xbe0be627bb32d07fU, 0x3ce912903db27c80U, 0x3d7cfabf3c1b5089U, 0xbe52d8e33d990a90U,
  0xbce70957bda59a50U, 0xbd11a8423cd9b998U, 0xba797d92bdbb94f8U, 0x3c834dc1bd9d69f5U,
  0xbe016e93bdd53762U, 0x3cd15ca93e092229U, 0xbc8814403db69df1U, 0x3e05ecfc3e179c1fU,
  0x3e35ea863d17c09aU, 0x3e23aa14bda1b062U, 0xbde539afbe0574dbU, 0xbd542f7ebd0d85b6U,
  0xbc97905dbc016483U, 0x3d592f443dbab852U, 0x3e12dba63d57e189U, 0x3cede098bd9d1c18U,
  0x3ce7e075bdb2d504U, 0xbddf6574bdf081dfU, 0xbce501aebe21b662U, 0xba557378bd7d0d65U,
  0x3e50f8d1bc3e1aebU, 0xbdf3ff6bba861177U, 0x3e61b439be0d4b99U, 0x3e110ee93da97ff9U,
  0x3dc7fcf03e50107aU, 0xbd3075e9bdb55d46U, 0xbd74a747bdc0108aU, 0xbd230d2e3e18d564U,
  0xbd7e905cbc129dd8U, 0x3d133debbe306d66U, 0xbdbecbd33d0682d9U, 0x3d690876bd2ed843U,
  0xbdb5d7af3db8320cU, 0xbddb3c703cf659c1U, 0xbd161add3e11fac5U, 0x3c50d38a3cfffa55U,
  0xbba9e3843d09f5c2U, 0xbdfecdb1be25fe0bU, 0x3dff7cfa3ddd8938U, 0x3e032c0dbd28e652U,
  0x3d6646a6be279b0cU, 0xbe16d7393d4cbe2dU, 0x3d9a7023bd25f6d6U, 0xbdd1ee6fbdf6c59cU,
  0xbe086d56bd0fd407U, 0xbdeace09bdeaf7bbU, 0xbe03bd993d63e71eU, 0x3daca545bdc5e75fU,
  0x3d9e9b16bda577d4U, 0x3d983db13d81611eU, 0xbd843a313da6c1b4U, 0xbe0fcb4dbc17823bU,
  0xbd1bdbebbc84be5eU, 0xbce6dab43de64602U, 0x3d116181bd8e74b3U, 0x3d3928d9bc7fb799U,
  0x3d268055bdaa08e2U, 0xbdd43f933da1b72cU, 0xbd6d9900be357fe6U, 0x3d0f2aa8bdb90670U,
  0x3bb32904be10478aU, 0xbbcd22053dcf7a4cU, 0xbdda659b3dd4a157U, 0x3e4a5487bdbf7dc8U,
  0xbe1b07aebc5b9c86U, 0x3d1af7b43deaf4b1U, 0x3df1273bbe0ed4e0U, 0xbc1d083cbd90fe43U,
  0xbd726262be16ba43U, 0xbd1d12053cb8a7c1U, 0xbc6e82abbe1900e8U, 0x3d9f35fc3d016cccU,
  0x3e2a5ad2bdbaee8cU, 0xbb34695cbda1e8baU, 0x3e0fbe5cbcd270c5U, 0x3db4122d3cc1e7ebU,
  0xbd30e550bddfebf6U, 0xbd7d6957bda5b82dU, 0x3e17a6a0bcb6cf25U, 0x3dc75c92be3e394bU,
  0xbc8a50c3bcc855d5U, 0xbd6c97d23e015fd2U, 0x3d70d26cbe6bbf07U, 0x3ca85e143d953428U,
  0xbd5e6a09bdf145a1U, 0xbcf55151bda65964U, 0xbd940e0f3d02fd2bU, 0x3dbc5a763dbdd492U,
  0xbe46836cbaa1a017U, 0x3d2f17043d780d24U, 0x3cbe62af3d74205eU, 0xbda2a95c3e29de08U,
  0x3d7c4336bd45bf4dU, 0x3db429c8bd993d00U, 0xbdf541c83de91be6U, 0x3e0325433dff6310U,
  0x3e1211533e29b2b9U, 0x3d8ac966bd461eb3U, 0xbd82178ebe01fdf2U, 0x3e21a524bd97908cU,
  0x3e0e73fe3c3cd0baU, 0xbd9c94e9be0fbc71U, 0x3d9e2152bca1594dU, 0x3beb0c6d3cca8fb6U,
  0x3db7f01dbd81ebc3U, 0xbca36a653c2f742cU, 0xbd0143783e0a7e16U, 0x3cc61118bdba93c8U,
  0xbe1c1206bc63cc9cU, 0xbc98d841be59623fU, 0xbda2cea0be136f3bU, 0x3da13ef53e10fa4fU,
  0x3d487d03bdf0a395U, 0xbe3bd103bdbb2170U, 0x3e0b3f5bbd39eb3eU, 0xbc6614c3be105b5aU,
  0xbcdfb611be1e0bebU, 0xbdad9a9e3dae2bdeU, 0xbe007d79bd45253eU, 0xbaa2f221bdc8e5f0U,
  0x3e812fe93c93e854U, 0x3d97b0e23e009301U, 0x3c6e9861be1b083aU, 0xbd1796bb3d3a283aU,
  0x3d9ee67dbdb61508U, 0x3d5a81323d7bd543U, 0xbd1e3d6abdf67162U, 0x3d07d1dd3cffd08aU,
  0x3c747a603e08ee50U, 0xbd73baa5bd88d69cU, 0xbe157483bd055634U, 0x3de39129bc560adcU,
  0x3d123c4fbced49dfU, 0xbd083312bd4755b6U, 0xbe53b52dbc9c58d8U, 0x3d889e483daedf69U,
  0xbc9cd6703c14fac2U, 0xbc1bb0c7bde7131dU, 0x3df5f8893c97ffacU, 0x3e2a4cfcbdde5d90U,
  0xbe14668f3d9957cbU, 0x3db20ccd3db32db6U, 0xbd82e702be01aac3U, 0x3e0f53dc3a16ffe2U,
  0x3d50ead0bcbb98f3U, 0x3d877799bcc5b938U, 0x3d8718923c162019U, 0xbd2fe3cabe07def2U,
  0x3e189ed9bdcdbb5eU, 0xbc0625cebdafa508U, 0x3e3c7ea5bc9ab8f4U, 0xbe09d422bc0610f9U,
  0x3dc3d0613e0ef49aU, 0x3d0ed8ae3c9d86b5U, 0xbd00122e3d2c19ebU, 0xbc5bb76dbe34b1b7U,
  0x3d4e52a1bd6afa4eU, 0xbcbd0795be498473U, 0x3c6a8a46be07c1caU, 0x3d8222483d323c96U,
  0xbcb8a842be2e2ebcU, 0x3d2e0823bd7084a2U, 0x3cd0a13fbd7fb660U, 0x3db4552a3ddbd7efU,
  0x3d911fed3d9e6d5cU, 0x3d8fdd12bcd88da0U, 0x3d782677bde6c927U, 0xbe3ecb2abd523b81U,
  0x3c995be23dbb4c52U, 0xbdef28d3ba499258U, 0xbd252e0f3d8ca80fU, 0x3b8679193b4c0ad5U,
  0xbe1daaf13df11f6fU, 0xbd94134cbe2f734bU, 0xbc3c6d26bd755c57U, 0x3cad1a443c99a771U,
  0xbcf18c513e3af6bdU, 0xbdf8123c3c31c746U, 0xbccac9403d60e592U, 0xbc32713c3df32eaeU,
  0x3d962174bb89bf00U, 0xbdd03a2ebde1d3c9U, 0x3cc0c661bde1bef0U, 0xbda46bb7bdee7682U,
  0x3c99b910bcd74c11U, 0xbe08844dbc5cb3baU, 0x3d0cda28bd20d727U, 0x3d100d893cca01b1U,
  0xbd81e3a23cd85045U, 0xbe165494be15ecd9U, 0x3d61eabbbdf16ff5U, 0x3d8d09bc3dc3534bU,
  0xbd01c5703d0392cdU, 0xbdc7752cbd9cd9feU, 0xbdfae08a3d021cc9U, 0xbe1c49babd16705bU,
  0x3d7878873d044c43U, 0x3d08e6403d903e90U, 0xbce1a771bcac5aa7U, 0x3d0a3ae13cd6bb79U,
  0xbcdbad4fbd9b1963U, 0x3ab5eeaebd17f104U, 0xbd9972e1be36898aU, 0x3cc277bdbdab044fU,
  0xbe11510cbe3fcd1fU, 0x3cd03ee0be5a7ab4U, 0x3c02916ebde36d1bU, 0xbe8978653bf57e6bU,
  0xbdce8eaa3d4fc258U, 0xbe540633bb36aacaU, 0xbe2c676c3cb49aa3U, 0xbddf5398bd2d36b5U,
  0x393df9133dd28362U, 0xbdabf447be49114bU, 0x3db8b9b3bc87a85fU, 0xbc69060a3cdcf2d2U,
  0xbd87b616bc0a5ab8U, 0xbdf30642bd806412U, 0xbe446ce13d1ea960U, 0xbe6292e8bdea88e5U,
  0xbdb3f698bdc11285U, 0x3cbed26bbe2e6f18U, 0x3dd58096be106fe5U, 0xbe82de4d3d9c62bfU,
  0xbe225a073d00daaaU, 0xbdab5a743df149c8U, 0xbd713f16bc55d502U, 0x3d2658c53e08fb14U,
  0xbd855440bc90cb1cU, 0x3e29aa243c95d8d2U, 0x3cf94610bca9b907U, 0x3d9636e83e161873U,
  0x3c051e523cf554c4U, 0x3dd96ca43b1b5b0eU, 0xbda77c9a3e2c9b47U, 0xbe159250bc410dcbU,
  0xbda993ea3d9042e4U, 0x3e3d02c8bd6df280U, 0x3dd862143d370b51U, 0xbe3c773e3e0d9324U,
  0x3cd8f9c93d852e10U, 0xbe22a5693e03c537U, 0xbd9b6c21bd082a14U, 0x3db7d3063d9d5bd7U,
  0x3d6c4d82be12ac4fU, 0x3de869ccbc51d3e3U, 0xbd627d0d3d9bf1daU, 0xbd0080ac3e273734U,
  0xbdeb07ce3baf38edU, 0xbc2e95f73d7e8d59U, 0xbda7b438be394340U, 0x3d8509d0be04de7eU,
  0x3d0684e1bc911d0cU, 0x3dd2091b3e4b64cbU, 0xbd6018453da55c5bU, 0xbe8a5406be4c7972U,
  0xbd855a493d4695c4U, 0xbd5c7b173c8384c9U, 0x3d9fc14f3e50e9d9U, 0xbdf1a836bd9b4b08U,
  0x3e04c8ecbdd06840U, 0x3e098e5f3d011049U, 0xbc47c894bdd50831U, 0x3e044672bda665beU,
  0xbca50d613cbec9dcU, 0x3dc2f3f13e567600U, 0xbe022b28bde71e44U, 0x3bd4c0fc3e2d4277U,
  0xbe156035be3ac6b2U, 0xbbc511333c933e59U, 0xbd666861be27fd3eU, 0xbd9d496d3e409357U,
  0x3e5c0c61bc1796afU, 0xbe3a31b3be49319cU, 0xbd8bd4453d6399f2U, 0xbd9028debd9bcb6fU,
  0xbdeb917f3bfaad47U, 0x3c86379c3d092c84U, 0x3df5e8353d10d028U, 0xbd64bc8bbd9bdc04U,
  0xbd0e853c3da910b4U, 0x3c7da9413d721ad0U, 0xbde48f80bd219935U, 0xbde147c63d83e4f0U,
  0x3c81aa06bc9163e0U, 0x3dc641f0bd9b2fcdU, 0x3cce2f14be5613c5U, 0xbdd081ae3e1cc676U,
  0x3d584bebbe005c15U, 0x3cb584c0bdc825eeU, 0xbe010caebd6216c3U, 0x3e07036bbc73ec85U,
  0x3d9bcf803d9c1aecU, 0x3c26752d3d84080bU, 0xba2766ebbe1a616fU, 0x3e39cb7b3da53733U,
  0x3dc08fd73c1565d6U, 0x3d94c827bce2464aU, 0x3dcbc12d3d1a1d43U, 0xbd2401f6bda63af1U,
  0xbcab697d3d6ab82bU, 0x3ca1a0043c3b1279U, 0x3c447de4bdc44e7cU, 0x3d96c9fdbdb48ef6U,
  0xbdc3bac1bbece60bU, 0xbd3ced983d448cd1U, 0xbc4a324dbd9bbdc7U, 0xbe4f5930bdaf842bU,
  0x3dd1b0cc3ccba99dU, 0xbe4f250cbe161ed9U, 0xbc84f409be019830U, 0x3ca17707bc8f037aU,
  0x3d2b0950be0d22c0U, 0x3c1d660bbd9fe63bU, 0xbd5a52c23dd9a3b2U, 0x3dd0a220bd61efe9U,
  0x3de189453dcf99c7U, 0xbdb0c46c3e31e81eU, 0xbd9f7a6ebe04f0e3U, 0x3e16ef7dbe2c607fU,
  0xbe262923be285289U, 0x3c8a73eb3cf1b8c3U, 0x3bb739563e527413U, 0xbd5cad243c980affU,
  0x3d877d3c3e094cd3U, 0x3e8972563db7a6bdU, 0x3de661e0bb0dbd3fU, 0xbe2a1780bb6cb1b6U,
  0xbe2305b8be15608eU, 0x3da85ba43dc42e86U, 0x3d82791b3e356063U, 0xbdcccf213db1281eU,
  0x3cb27314bded46f1U, 0xbcca6cdcbd9727a0U, 0xbce6d0d13da132eaU, 0x3e04467dbc3ef1f8U,
  0x3e3b6f9dbe33eeaeU, 0xbd241f903b82addfU, 0x3e3dc5e43d5f8d54U, 0xbd8666b2be0c747aU,
  0xbe04c6b2bdad5d2cU, 0xbccd9b3cbde247f9U, 0xbe11d5d73e37d5d3U, 0xbda495643cac0e16U,
  0xbd230d79bd9fde3bU, 0xbd30761cbd9bd3bdU, 0x3e0b2bdebbabe3bbU, 0xbddcc64e3c4d0f1eU,
  0x3d310cb1bde36298U, 0xbded9eecbcde7488U, 0xbdfa9d493dacae77U, 0xbdb7749fbd842a18U,
  0x3dd6d501bd55ce89U, 0x3d9e9e3e3d77d869U, 0xbc7a649bbdb26a7cU, 0x3cfb23b9be14df83U,
  0xbe2dbe0fbcaee291U, 0xbd0d9100bcdcbab4U, 0x3d2ec5583de13dc1U, 0x3d5577903dca62ebU,
  0xbdc538643cfd05deU, 0xbd05be3cbd9908deU, 0xbad56eab3def50aaU, 0xbb8054013da44137U,
  0xbdb702f63de9b063U, 0x3cdfc1533d9d8c1aU, 0xbd9664703cd4f1f9U, 0xbe16e002bdba6128U,
  0x3d0d814cbe0235c4U, 0xbd48e8923d1ef62eU, 0xbda0e63ebb6c69f4U, 0x3cbdb745bda6e2bcU,
  0x3df5e8a03d88251bU, 0xbce6afcbbdaf3cd2U, 0x3d288f7bbc0f0092U, 0x3dc9cadf3e0a2acdU,
  0xbcb640d33dfef347U, 0x3db5de313d0bf9dbU, 0x3dc9c967bda4253cU, 0x3d65bec5bd610582U,
  0x3db74d7ebce46aa4U, 0x3df7ed36be22e227U, 0x3d079ba4bd944ea9U, 0xbdc7e699be1ac5b4U,
  0xbd10c588bd9bbdb6U, 0xbe14fac1bd0ee428U, 0xbda38431bde7d537U, 0x3e1e5c923c95e2e0U,
  0xbdfc437a3d9da240U, 0x3d3f87babdb356b1U, 0xbc34c8cc3d935e23U, 0x3e2036a73d32de87U,
  0xbe1b89debd69fe8cU, 0xbd8b87e73e4485f8U, 0xbdbd2b41bda573f2U, 0xbd9e5bf7ba7949e4U,
  0x3def3aa2bc2f78c5U, 0xbe02e2f0be1f9cceU, 0x3d9503b83bc97c63U, 0xbe5833c2bd38571fU,
  0xbd5c5355bd77d0c4U, 0x3cddd347bd9e6b4fU, 0xbd93c062bd02de71U, 0xbda0d62c3e2bce30U,
  0x3e31b449be34ad3dU, 0xbe2c8dbfbdc9318dU, 0xbde36efabc334e99U, 0xbde909213b8c8c65U,
  0x3dc4a6063db0620bU, 0xbd97474cbe2dd21aU, 0xbbe164f83cc18f19U, 0x3b556b293cae59ceU,
  0xbd61ed3ebd3a0949U, 0x3e130f5ebdf12be6U, 0x3d5b3eb6bcb18e48U, 0xbdcbe2b53d22357fU,
  0x3b2493703daf9187U, 0xbd207f0a3e5a4bb1U, 0x3c155b883b9c9aeaU, 0x3e32ee27bda9da9eU,
  0x3aee0f113d6a9e9fU, 0xbe2a743f3e1586d9U, 0xbd8192d7bdb4744bU, 0x3d18f3073de92883U,
  0xbb268667bd342673U, 0x3df5243bbda005c0U, 0x3d9316f2bdd70130U, 0xbd73ad52bd9e753aU,
  0xbd16f864bd0418a2U, 0x3d56e665bc957378U, 0x3dc368d03cc5be44U, 0x3d2db1c7bbd608dcU,
  0x3d4c2f65be3ee6f7U, 0x3d4da8bdbd81d776U, 0xbe0a13fc3d4f3e71U, 0x3d985b153d2625b5U,
  0xbda02b48bdffbb87U, 0x3cbc92e93e0616b9U, 0x3d812c3a3ddffbb9U, 0xbcf81019bd4bc161U,
  0xbd9cddc83e37c337U, 0xbbe72b98bd9e0dcbU, 0xbdde842dbe6d1465U, 0x3d5da39a3dde69c1U,
  0x3d4e87233be45a6bU, 0xbd015df8bdb761c9U, 0xbe34c2e9bd349922U, 0xbd3eeba73e139c78U,
  0x3ca6fb9ebe82c14fU, 0xbd759e313c4b6ee5U, 0x3c5251ac3d9ad0f2U, 0x3d55ab1abde1e43aU,
  0x3d47315b3dc45311U, 0xbddf7c9e3e10fa17U, 0x3cd2a4533cb6f5f3U, 0x3dd6dcb9bdbadd8cU,
  0xbd8080ad3da34c58U, 0x3d94afd2bd83a169U, 0x3d93e617bdf4de3eU, 0x3e0829e43de73432U,
  0xbc8234213db46af8U, 0xbd46b142bd61e1b1U, 0x3d8a95dc3dac7426U, 0xbdf6ce0e3d521afaU,
  0xbd10c7f1bd0c4686U, 0x3bc0a451bd4ef6d1U, 0x3df82569be3f19beU, 0xbd2e4b3dbdd2612cU,
  0xbe24def63e13584cU, 0xbadb4970be0bce01U, 0xbd85e2e63de28656U, 0x3d1ecabd3d254993U,
  0x3c6b8cd7bd06b27fU, 0xbde0debd3e07b9c5U, 0xbdd68e463dc0301aU, 0x3cfa0bc6be1bd699U,
  0xbe3f74653cc9047eU, 0xbd2ed4503d7b0494U, 0x3dea4f623d87b7f4U, 0xbdfc5d0ebe1e95fcU,
  0xbd8e85243d5d23b5U, 0x3dc496cb3c0ab7d9U, 0xbdb06e293e3cdf7bU, 0xbd76caa53d8c3615U,
  0x3ddd59f3bd7d0f8dU, 0x3dcbdbc23c2a16ecU, 0xbdbde814bcdbf15bU, 0xbe1d4bf03dc46e48U,
  0x3dbd7610bccfada2U, 0x3d3245f6be1bc5c9U, 0x3dcfe8003db7dd06U, 0xba0932b7be17ea39U,
  0x3db53d8ebd891c8aU, 0xbdc84e24be0bed04U, 0x3d17bde4bdd5df7cU, 0xbde0ddd23e82030dU,
  0x3d82bbfdbdc8dbe8U, 0x3d817221be2ac623U, 0xbe17a63c3cb7c752U, 0x3e19307d3ddde1b3U,
  0xbe0812543dd6fd43U, 0x3e203704bdec453fU, 0x3d02972fbda8ffc4U, 0xbcf6dfb8bd88aa77U,
  0x3bfe0fed3e31fe4cU, 0xbddc20b2be0de756U, 0x3cc67daa3c1a12a7U, 0xbd4e75b8be03c965U,
  0x3d4b2e083cff6e44U, 0xbd2257e6be962404U, 0x3d9af820bda830a9U, 0xbc6a3d373decd918U,
  0x3dab49473cecaa72U, 0x3d91d19dbd987388U, 0x3ce9f042bc511500U, 0x3dd391a3bd06b824U,
  0xbdaebadabe2774efU, 0x3d99696ebdf7b62dU, 0xbd348132bd8eed9aU, 0xbe024ef53d2ca764U,
  0xbc48b47dbc8774e1U, 0xbcde65b0be07686dU, 0xbbb9feef3d8c952fU, 0xbdf028a1bc72f456U,
  0xbd866545bddb84d7U, 0xbe02193ebe187e69U, 0xbcb798e83cfe4e33U, 0xbd1bec9bbddcf12aU,
  0xbdd03b3e3dbe456dU, 0x3dd3493a3dc4cf5fU, 0xbd36aecebda2115aU, 0xbd586d1ebdfa70beU,
  0x3c9bcfebbd18c5e2U, 0xbcd62da13e0deeebU, 0x3a1304ef3db94dc8U, 0x3dcec63bbd9851ceU,
  0x3e6d71173cd4cc86U, 0xbd81c3463d0fc483U, 0xbd5d666ebd97a8fcU, 0x3dcb2bc8bd6af0e3U,
  0xbc83b259be050fa1U, 0x3e225e413d422609U, 0x3d33305f3cf304f1U, 0xbd08d8acbe68acb7U,
  0xbe2493a9bd98450eU, 0x3d8c6aef3d86fcccU, 0xbdb6555a3d36e3adU, 0x3d1a20a2bd147de4U,
  0xbde57c96ba878723U, 0xbd64e8fc3ca99c92U, 0x3d8b6a533afb4f60U, 0x3d84982a3da895f1U,
  0x3dfb90b83d84b45eU, 0x3d81c0bcbe10607eU, 0x3d32092bbe10a780U, 0xbde6f7efbe07252dU,
  0xbd8cdc093cce42e3U, 0x3daa3c6c3d982a88U, 0x3daf92c0bd052addU, 0x3c85598cbe7c6c1aU,
  0x3d9156b0bd6e28d3U, 0xbb32bb34bd6f657bU, 0x3dfeed3c3e353cbeU, 0xbe0dba4f3dbcc528U,
  0x3deb19f3bce5b97dU, 0x3d9a66643db24513U, 0x3d248b5ebb438308U, 0xbd8029fcbe5a9af1U,
  0xbd681f47bd8c6656U, 0x3db3d5483c787ed7U, 0xbc59cee13d80e8f8U, 0x3d5a9da13d33b093U,
  0x3e0a0e17be0f5bf6U, 0xbc3efac43d18e550U, 0x3de375c9bdb2f8caU, 0xbd4d6cf03dc4fb89U,
  0xbdc131d7bb2ab5bfU, 0xbcbcc3e13dd0bbb0U, 0x3dba22c03dfb3b67U, 0xbd096790bd081121U,
  0xbe02f0c73d85e3e4U, 0x3d089986bdb62b68U, 0xbb4228e0be2339f9U, 0xbde6c1f7bcaf9f19U,
  0xbd9517f1bb74b451U, 0xbd1d474bbdc10dcdU, 0x3e0ec21a3d48a585U, 0xbe0b0a953de248afU,
  0x3d319e03be63a109U, 0x3cd70d04be1f067bU, 0x3d939559bcf51682U, 0xbd986bda3e16e260U,
  0x3d8614b53de42100U, 0xbdd1546dbd69a1baU, 0xbbc05302bda34036U, 0xbe159373bcb06880U,
  0x3d8ff349bdcf54a1U, 0x3d6fd168bdd29844U, 0x3c427ddb3dd44446U, 0x3ddb033c3da27eefU,
  0xbd59d9cfbdb63833U, 0xbdee9caa3df989eaU, 0xbe59dab9bca25f46U, 0xbd1d9f8abcff94ddU,
  0x3d6ff86abdc9a31fU, 0x3b8f5556bd91dd4aU, 0x3da2f916be10d133U, 0x3d86c2c53e21cc95U,
  0xbe024d223dd37cf6U, 0x3ad880b4bbdf573bU, 0x3de14c68bde57b21U, 0x3dca2d8abe2471f6U,
  0x3dc5f83d3e035fe3U, 0x3d9cc6c8bd73958fU, 0xbd8f8f673db05045U, 0x3c9a4764bb1071eeU,
  0x3dac92c13e076e37U, 0xbb9c21a13ddaf7c3U, 0xbe2d98aa3c116839U, 0xbdb2f8583dc56a00U,
  0xbb5a784cbe1fa958U, 0xbdb41e9dbca41f52U, 0x3da749ef3d920d1eU, 0x3e48374dbd2d4306U,
  0x3dce3fe9bcfc8266U, 0xbde50ddf3d97836bU, 0xbbcb9ecbbe4147c0U, 0x3e0542733d7a8880U,
  0xbe2448913ddde3edU, 0x3e1f1787bd129563U, 0x3dd62e383d2da274U, 0x3d84c15f3d1005b4U,
  0x3c9ebd3bbd2307d0U, 0xbd214353bdb7904cU, 0xbe2d8ccd3b80be86U, 0xbe27e7bebd14419fU,
  0x3e03eec7bd1a7f60U, 0x3dfe949fbd61294bU, 0x3d76b434bdf47f02U, 0x3db006e4bd73536bU,
  0xbd460c1c3c1a6c0eU, 0x3df95f61bda7e964U, 0xbdf434b13d53451aU, 0x3d5811dfbbb7c01fU,
  0xbdd59a79bd49bf70U, 0x3e403e2abddf7ea6U, 0xbb4ded533c9a9ea1U, 0xbc8aba17bd018b66U,
  0x3d3688823d7e93daU, 0x3c595c74bd956db1U, 0xbd8a18d43d50b2c4U, 0xbddbfe5d3d8547cfU,
  0x3d823f303c327757U, 0x3e1807513d34b997U, 0xbe0c8ba7bde47ce6U, 0x3db0d5febe562ca3U,
  0x3d69d37bbdb9e339U, 0xbd90c97c3e0f2b07U, 0x3e19460fbe463ec6U, 0xbdedc162bd730f69U,
  0x3db59f7fbbba70b9U, 0xbd814da93e07ec58U, 0x3ddcbb9fbd8a4d74U, 0xbdebe854bd0940a4U,
  0xbd11f28e3d9857a0U, 0x3cf930cfbd29ff63U, 0x3d1345d6be6eec2bU, 0x3ce5467cbdaefe0bU,
  0xbe8bbfb0bd0aa887U, 0x3db1ed5b3e0a00e2U, 0xbc2b1a523c8f5fd8U, 0xbd114456be3102f2U,
  0x3dd7fcb2bcac98f7U, 0x3dec338cbbc48debU, 0xbe01aae13deff455U, 0xbdcc9b30be24da3fU,
  0x3d3bf73f3e3484a0U, 0xbd062dc93e06216cU, 0xbd96524b3e482761U, 0x3ddb2a55bc07da12U,
  0x3c0e80f43d71d160U, 0x3d9a47c0bdfed9b0U, 0x3d23d8413d82cd9cU, 0x3d7ffa3a3d32bd9dU,
  0xbe432f0f3d918f6cU, 0xbd8048473e207c64U, 0x3e043686bca8c2a8U, 0xbe75fa9039e900fbU,
  0xbe153f7c3da438e7U, 0x3d6c106bbe1b2f58U, 0x3d2129a53ca4e4b2U, 0xbe22c83cbd59df4dU,
  0xbd727e35bcb90d89U, 0x3cd9c17b3debc0ecU, 0xbda3568e3dbc50bfU, 0x3e078d0fbd2f5552U,
  0x3dad48e9be41cacdU, 0xbe0aadcebdc9dcc0U, 0xbdc7d2a4bda2f001U, 0xbcd0666ebe206099U,
  0xbdb3e7e9bdd0a206U, 0xbe56237c3cdf785fU, 0x3d89f6ecbdd7adceU, 0x3d793fe0be29f8b0U,
  0x3dbdb1d5bd843d4dU, 0x3d83c3b3bd9aafc5U, 0x3dbd72b43e533bb6U, 0xbdc6dfb5bdd7e0e5U,
  0xbdd81ec23d880abdU, 0xbc67b2103d37c3faU, 0x3cad9b3dbda695a5U, 0xbdeefc6bbe87b21dU,
  0x3cfe0350bcb9ec7aU, 0x3d7999e3be69f8bdU, 0x3d88656e3e17fc17U, 0xbd797d5fbdd9b08cU,
  0x3d337a98bacf6b0aU, 0x3da70f43be28df8dU, 0xbd80d76cbd1b5be6U, 0x3d8c3f97bd8eb968U,
  0xbdcdcfc3bdcf379eU, 0xbe2ebad8bb9a304aU, 0x3e11f021bdaabf3aU, 0xbe3f11ddbe018d2dU,
  0xbdc86b1fbd2bd666U, 0x3d220c8dbe2b9d62U, 0x3d2b30d43ce0ee96U, 0x3a944f8abe0f325dU,
  0x3d3b6300bd223bffU, 0xbd3f8518bd29c913U, 0xbd25a27d3d2e4415U, 0x3dd04d6cbd57da17U,
  0xbda5d241bd8a9e73U, 0x3e0bbbdcbd5c02b0U, 0xbdc44f7dbd22e133U, 0x3d9c4bee3e5841daU,
  0xbd83d9dd3da9adddU, 0xbda5a3403d806f2eU, 0x3daf5c00be81bafdU, 0xbd8fd7a0be1bf89dU,
  0xbd713fef3cf833caU, 0xbd7a87bdbe35b86eU, 0xbdf804fabe1caad5U, 0x3d221d953d75e595U,
  0xbd31adf43c2b3778U, 0xbe24de223d484810U, 0xbcafde1c3e25dcb2U, 0x3dce2e563d1d6648U,
  0xbce2ac643d8585cbU, 0xbd7346aa3d1adac4U, 0xbce2e65a3e0a7d71U, 0xbea01a62be739a33U,
  0x3c3fe297bd902e1aU, 0x3ac8f41bbca4d6a8U, 0x3d8b68e63e27c0aaU, 0xbd2cccb9bd048560U,
  0x3e02e868be99aa21U, 0xbc874e7ebd334375U, 0xbdbf9726be1f3b39U, 0xbd347c80bdf6f72aU,
  0x3d74293e3e2873b3U, 0xbd1c2c25bb35c8a0U, 0x3c0fc523bcc710c3U, 0xbc26db373d97445eU,
  0x3d285455be28d284U, 0xbd8af0f83e0b8615U, 0xbc2ce870bda3dc5bU, 0xbe8f29553db1bb66U,
  0x3cae3d7fbcd6aa37U, 0x3ceee1c5bd900c36U, 0x3d8e732a3e641553U, 0xbd274284be3cf7eeU,
  0x3d7efb3cbd9e98f2U, 0x3da002313db01d3cU, 0xbe0e1263be1f8e94U, 0xbdea3c41bd4d19b7U,
  0x3c8afa0bbe14f9b6U, 0x3af5d3a93d9777d4U, 0x3cf0527bbdb5c9deU, 0xbe22e29dbdbacf24U,
  0xbd9d32a1be35a0e1U, 0x3d4e7b83be2b1166U, 0xbdddaa6dbddbb663U, 0xbc804bab3e02207eU,
  0xbde4571c3b7c5168U, 0xbe2bf3d6bd1057cbU, 0x3e423426bdfd3d6fU, 0xbd93d3c6be2af26fU,
  0xbc870cd53dfd8fa5U, 0x3e20cfa7be54d056U, 0x3e3469be3e860dbbU, 0xbdbff053bd1446d9U,
  0x3e3ffc75baa8b92fU, 0xbdddfa6fbe271dd4U, 0x3ddd1495bd695a46U, 0xbe3b7ff1bd7809a2U,
  0x3e1c030dbe66739bU, 0xbc9138afbe458fa8U, 0xbdc101d53d46341eU, 0x3c8b7acdbe2dbbefU,
  0xbd8d6b9cbdbcf094U, 0xbe1fecf1bdc3ff4dU, 0xbde330c7be76e131U, 0xbd982c4d3e1e1ee4U,
  0xbe45f98f3e0f8b50U, 0xbe7d9ee4be3406abU, 0xbca8ad92bbf00ae3U, 0x3d29f1ce3d370ccfU,
  0x3da6068dbe3d7debU, 0x3dce8789bdba489cU, 0xbccc0c453e4f77f9U, 0x3d65f2933d6ff991U,
  0xbd388e5c3e5b0856U, 0x3e3b9b0ebe6c4d4eU, 0xbd7bf253bdba55f2U, 0x3df8c3ec3d31d55aU,
  0xbc580ab03d6c9dfeU, 0xbd9cb242be0ab959U, 0x3d5295b4be2dcd32U, 0xba38c66c3cd42beaU,
  0x3de2051f3d8a5f52U, 0xbd46ebbc3d40ff1bU, 0x3e12cc56bd0042dcU, 0x3e32dd2cbb9ccaceU,
  0x3d37c4b93dc57442U, 0x3dabc28fbd1a36e6U, 0xbd5ae3a1bd265cb1U, 0x3d5b62d23e0a99aeU,
  0x3c874ddb3e0b7032U, 0xbe289cd0bd4ff05aU, 0x3d12c8c2be29a178U, 0x3a0b1536bd0d1082U,
  0xbdf00cef3cc1d881U, 0x3bc8e5203dee3a31U, 0xbdfd19ed3deb0f1eU, 0x3e009790bd9dca2fU,
  0x3be9157a3cf2f89eU, 0x3dc758063c4c9ba0U, 0x3ceee2303c25f755U, 0xbe93b520be6089bbU,
  0xbdc049553d12bcdeU, 0x3dffbaccbc9399e1U, 0x3e0539d03d8e2c2bU, 0xbdcdbcaebd7decd2U,
  0x3e04e3ccbe2b8099U, 0xbe261ce83bef485cU, 0x3ceac8273d7a435cU, 0xbd9412713e149f34U,
  0xbe1e0cd53e2202a8U, 0xbe0f35073ca61fbaU, 0xbd0859c53d5e4592U, 0x3dbea182bd903160U,
  0x3c1719abbd74f54cU, 0x3e19720abdbf6b22U, 0xbdaac8b73d61efd0U, 0xbe372bf2be696f20U,
  0x3d98f166bd8f35cbU, 0xbd63ba93be43411dU, 0xbd70df443ddcd9deU, 0x3d91c861ba85ccdaU,
  0x3dfbab35bdfb4774U, 0x3d607cc03db498f6U, 0x3d4f11d1be0aa30dU, 0x3e1a8a46bb54a5deU,
  0x3b90e2403d864f54U, 0xbe0059c6be48d1fbU, 0xbd09c9f1be09d8a9U, 0xbd1c691cbd90807aU,
  0x3cb678b7b9b66ae6U, 0x3d94b93ebe5f51b5U, 0xbe128d803b28973cU, 0xbd8367383dcc7d94U,
  0x3db5c6f7be4eeb0bU, 0xbe16b2f9bbd35caeU, 0xbd258215bd9b9662U, 0xbc1524c93dac6e95U,
  0xbdf6394b3d476b9dU, 0xbd12f7a6be2b7807U, 0xbd7f8f2738b487a8U, 0x3e9c6c283e4999bfU,
  0xbd0a9c9b3d2bbd4dU, 0xbb8559cfbe31919fU, 0xbdeadad7bdebb62dU, 0xbafb2017be4ebbcbU,
  0x3cb03e123dea98d9U, 0x3de3ba54bd7b1eb3U, 0xbc4f031e3d7059f8U, 0x3dca3abebcd0b44dU,
  0xbe064b7b3e11e38dU, 0xbd2c9a67bd4cf431U, 0x3c8f10fbbe1090c3U, 0x3a007961bd80580dU,
  0x3c8dc17cbc587254U, 0xbda54e79bde6fb60U, 0x3c4170fabdccf35aU, 0x3e824c073d7b9b5dU,
  0xbd19460d3d63a610U, 0xbd84fe9f3daa4674U, 0xbdc39d4cbe34f864U, 0xbdc4a6aabd13f4ddU,
  0xbd47868cbde891ecU, 0x3a3746923d0f2940U, 0x3dba023a3dde99dfU, 0xbda0b44ebc81f45bU,
  0x3db27bb63d182e1cU, 0x3d1fca3e3ddd3024U, 0xbe1d49f1be0e8ee4U, 0xbdebb642bc96839fU,
  0xbd36927abe294375U, 0xbba000c93be3eeadU, 0xbdaef576bd72278aU, 0xbd8656343db71171U,
  0x3dcaccc33d9c493dU, 0xbd815e8a3d815322U, 0xbdc500dabdf37dadU, 0xbcbd7f6dbdeedf13U,
  0x3d9dccdc3de006d2U, 0x3d269316be0ece8dU, 0xbdb1bd63bd9437f5U, 0x3dfb4158bde66dd2U,
  0xbd08b1a3bd9aca58U, 0x3d57e5e7bda71e40U, 0xbe5b2023bc2af630U, 0xbdb499dcbdf080f9U,
  0xbd3205253e66e9a1U, 0x3aa554abbd0413a2U, 0xbd70b150bb10f098U, 0xbc27f40d3d58631bU,
  0xbd52f6b0bc81e9c1U, 0x3d12fe10bd9df778U, 0x3d3dc0563dc2489eU, 0x3cf7f010be09a618U,
  0xbde83cc1bc9033eeU, 0x3ddcade93d36bf74U, 0x3d95b15c3e0345f3U, 0xbdcc3e763d360351U,
  0xbce527983b60a7afU, 0xbdfa7d273dbd17b3U, 0x3d05dcc1bdd086b2U, 0x3d8042c63de566a9U,
  0xbddcb8fb3d4dc6ddU, 0xbcd116eabdd3885dU, 0x3de1b38b3db28485U, 0xbe498a92bdf3ca0bU,
  0x3b9ac65bbe243a69U, 0xbd80535d3d5ad6dbU, 0x3dade3db3e05ff8bU, 0x3dc76a86bd132e34U,
  0xbdcbda53bb5cafc6U, 0xbe1432913d77e587U, 0xbd0fa4fd3c808c71U, 0xbd32b12bbd966ebcU,
  0xbd3eec413d480bceU, 0x3de2be61bd5669e0U, 0xbd2cc487bdd84346U, 0xbd36c713bd874d8dU,
  0xbd69ea253e0ad16eU, 0xbd74c2f43e1e1fbbU, 0x3c928da33daef76cU, 0xbe6f67c1bd519c27U,
  0x3d9651d0be05ceb1U, 0x3dc9d17abdfd1820U, 0xbe73dd70be85c41fU, 0x3d9d80e43e08050cU,
  0x3e31efb43e13d686U, 0xbdc7e1a93cf34d5bU, 0xbce5d4b73d7abe50U, 0x3d6bfaa23e37a199U,
  0xbc33e15f3d777cb6U, 0xbcf205123d562583U, 0x3c964f68bdf41e5fU, 0xbcc421bb3d9a7dfbU,
  0xbdf9f127bdc03a96U, 0x3daed837be013b1aU, 0x3dc3702a3d8aac11U, 0xbe28f8d3be78505fU,
  0xbdb2abf3bd80ede1U, 0xbd7486ffbe1cbb01U, 0xbd836c0cbdba8ffcU, 0x3db00cbfbdb8e6f9U,
  0x3d15bdec3d50354aU, 0xbe48b1c03deb0233U, 0xbdf13a2cbd12b06aU, 0xbe403ece3be54264U,
  0xbcd520ea3d8edf74U, 0x3d8a4c0bbd62dd1bU, 0x3da8dab43d48a4f8U, 0xbd9d9ab33d6b9409U,
  0xbde99a37bdf1aa7dU, 0x3e0fef933d56e3c7U, 0xbde564b3be0eac73U, 0xbda2fc77be22aad7U,
  0x3e1f1887be3cd001U, 0xbd87087dbb99f69dU, 0xbd679fa3be04e08aU, 0xbd88d900bd32a42dU,
  0xbe37d1b93e2d5a7cU, 0xbd90f4703df6458bU, 0xbdecdd873c44465eU, 0x3ddc499e3b19a858U,
  0x3d42d0493cd7afc1U, 0xbde08c8bbd213082U, 0xbe23ef293bc01305U, 0xbcecb7053dacee7dU,
  0xbd1270893c8cf132U, 0xbcda71083b2db78cU, 0x3e14a7c3bc87c6d3U, 0xbe20a5e2bdf932c0U,
  0x3cad5286be0c52ebU, 0xbe205e89bc2b8a81U, 0x3d7759693cd0b9dcU, 0x3ca71846be02ef8eU,
  0xbe53bdc5bd9cc2fbU, 0x3d8fa6703dad382aU, 0xbe1e7502bda8ffeeU, 0x3df7adc53c84cd3eU,
  0xbd4d82263a7ee622U, 0xbdefdd13be07f029U, 0xbdb6a0263d1bc6eaU, 0xbe0ee68fbe25fbb9U,
  0xbdc5c9e53dd90817U, 0xbe388b643e1c9da8U, 0xbdf2b004bde9617aU, 0x3db81e52bca9a5dbU,
  0xbddd4a14bbcc16e9U, 0xbdedcfba3d9a6d70U, 0xbdf81e75be8a1871U, 0xbd64c0babe1cceddU,
  0x3d87bcd23daed36eU, 0xbd843c803d44c0e7U, 0xbe5412c5be16fa77U, 0x3b419984be40cd51U,
  0x3e0564c13c01d796U, 0xbdc85603bcc1f6a2U, 0xbd77f9b63caacbbbU, 0xbcb17e7f3d917085U,
  0xbbf62ecbbcd38111U, 0xbd5cacfd3e07ae47U, 0xbd7b31d2bbd94b59U, 0xbdb12dbbbe138233U,
  0xbd7d628cb9cd4252U, 0x3d9ef1973de9dbfbU, 0x3dfa83e23d3f5ff0U, 0xbde96783bd9eb38cU,
  0xbe4034debcf0d5e2U, 0x3d6539af3dd19ef3U, 0x3d1f29dcbddee3ccU, 0xbda8c5debe44e61cU,
  0xbd835ce5bc522a9eU, 0x3db60a363d8853ccU, 0x3cd1f119bdbd9919U, 0x3d65ab213dccac5fU,
  0xbd70322abdf96d6aU, 0x3e02e57abe015996U, 0xbdf049dcbd64c5ceU, 0x3de177b43d5dbad4U,
  0xbde61b7abd0d0587U, 0xbdb07d6e3c99bd23U, 0x3dcdd0bcbdb3f7a9U, 0x3db9978a3d4ee021U,
  0xbe1c341ebdd12913U, 0x3d3be7a4be2b80cdU, 0xbd9b1e613d84291eU, 0x3c623eb0bd917be2U,
  0xbd75d6efbddf0b87U, 0xbbe2e1b0bd246752U, 0xbbfd0bd6bc13ef72U, 0x3dc3c662bd93ad24U,
  0xbe228937bd2e19ecU, 0xbe1b66053db15d63U, 0x3e329328bc84533eU, 0xbdfc16aebe28b1bbU,
  0x3e2f5a97be191975U, 0xbdd4124bbe1e78ffU, 0xbca93dd33da14f53U, 0x3c294f6abe41cdefU,
  0x3d9a44cd3d92a8b3U, 0x3d174dea3d1ea4f4U, 0xbd56fce73d965612U, 0x3da41e773c239169U,
  0xbd6183b63dabf7ebU, 0xbd23b4713e038c1eU, 0x3d96d2c03d326b6fU, 0xbddc9618bc36a29dU,
  0x3dcbc7c5bdeb0c0aU, 0x3c11ebb6bdde836dU, 0x3d5390efbdd03cfdU, 0xbe83552f3d1ec927U,
  0x3daeac6a3d45d3f3U, 0xbd93c64fbdc6eebdU, 0xbdb778e4bc91ff47U, 0x3d8c85473dce8347U,
  0x3ddf7edcbe040095U, 0xbdbdef8e3df6065dU, 0x3d3444b3bd43f529U, 0x3da8cdaa3d8cdb4eU,
  0x3dcf8e5f3d9d5163U, 0xbd12185bbccf06f8U, 0xbe0c7c8bbe2518daU, 0xb9d902b13d2b3449U,
  0xbdaa32173d727bffU, 0x3d8b4595be3e190bU, 0xbe0599aebdebf6b3U, 0xbe3757813cc1c638U,
  0xbde489ed3d9c93b2U, 0x3df4275ebd249428U, 0xbdd0f2dc3b91110eU, 0xbd0c0b323e2a1346U,
  0xbe41b831be2e5232U, 0xbd989ba8bdec2c88U, 0x3dcc0f8abd28ef96U, 0xbe1651c23d55ae5bU,
  0xbd949b20bd25f9dfU, 0xbe37d3163d97d07aU, 0xbdfe04cdbd393c8aU, 0xbde8bdaabdd5952fU,
  0xbdab71cf3dfc4997U, 0xbe56016ebdc47aeaU, 0xbd83b4733d30073eU, 0xbe81f80c3dc95e92U,
  0x3ce3a731bd789190U, 0xbd4016d6bd34f06fU, 0xbd920f0d3c44edcaU, 0xbd4850f7bdaf8cf0U,
  0xbcdc59a3be7585d6U, 0xbe520e193e1317f7U, 0xbd3c549f3d7482abU, 0xbd73043dbdcb6f82U,
  0xbd3522d9bdff97aaU, 0x3d99c9d1bd9b37f2U, 0xbd1070e2be1e2fb9U, 0x3d644cf4bd8fcee0U,
  0x3ae8d3aebe04e70aU, 0xbda9dfdf3da53033U, 0x3c57d7c03d2a27a4U, 0x3b9fad3dbdbed202U,
  0xbdb9ddddbd317281U, 0x3d8eaa09be15588fU, 0x3d88fd3c3e28d3adU, 0xbe2cb70f3e17001dU,
  0xbd67dac9bdd5c5dbU, 0x3d208ad93c479ee5U, 0xbc5257653d6a0139U, 0xbd32f388be303c7cU,
  0x3d87ac1cbe19c96bU, 0xbc92b726bcd9e284U, 0x3dcafd29bc62a942U, 0x3ddb2de73d27cbe6U,
  0xbdd3f95dbdb8ad08U, 0xbdddd7bdbdcb903eU, 0x3dbfa255be06e071U, 0xbdfe5b293d90ba10U,
  0xbd2c0cf5bd98ccffU, 0xbc39296dbdd08897U, 0xbd3523ebbcac3654U, 0x3db3cf11be3d9369U,
  0x3cbb17373db381fcU, 0x3d27a310bc598060U, 0xbd945fba3d37a24bU, 0xbd82c72abc812aadU,
  0xbd90396abd26ff5dU, 0x3d368b783dbfe17aU, 0xbd8909cc3cbbd9d3U, 0xbdc200953c7ddbc4U,
  0x3bcd4619bdbfe32bU, 0x3d770fe5bd7f29fcU, 0x3d9eb6083dbb84dbU, 0xbdba5333bba1a879U,
  0xbd16e8a53d658dc7U, 0xbe1af7d23dce3425U, 0x3c0f96543c750b57U, 0xbddbf4e8be2b5028U,
  0xbcd600153ddf0588U, 0xbe1df9ebbdd5f4f8U, 0x3d8a39613dc335a9U, 0x3dff69673dcd40c8U,
  0x3cd1924ebd65ac78U, 0xbd5ece003d4dc107U, 0xbc83717c3d3d7d54U, 0xbd841153bdb1a99eU,
  0x3de1786f3cb52670U, 0x3df86395bd18de6aU, 0xbd0727d9bd95c627U, 0xbe0516d63db355e7U,
  0xbe005a813e0061a5U, 0xbc4a325abd9b32ceU, 0x3dc94616be1c43eaU, 0x3d1a1555be199b86U,
  0x3d1cf6cd3d0f510bU, 0xbdca8ceb3bc40c86U, 0x3d1e14623deb9db3U, 0x3cea778ebd1ed29cU,
  0xbded1c33bdadbdaaU, 0xbc788ca4be082aa1U, 0xbd6fff96bd16fabdU, 0x3db1383f3d626f1bU,
  0xbdb2866dbdc69010U, 0x3d54a1693e0c7a92U, 0xbd912d7c3bfc0bcfU, 0xbb8ca1b5bcfb51eaU,
  0x3d669eb4be0afcb4U, 0xbb36102e3d18cd63U, 0x3cab7bb0bc59f60cU, 0xbe209b5abd0cbe3cU,
  0x3d39c3473d49da0cU, 0x3b92ad7cbdcc866cU, 0x3bcc1b92be04c140U, 0xbd2481fa3ce95cd9U,
  0xbcd8bb19bd058ef5U, 0xbb99fab73dcab41eU, 0xbe551e3bbdb1af16U, 0x3c3336eeba8bd1b2U,
  0x3e103c543d28086dU, 0xbdbfe9e23e19ff84U, 0xbda3d91fbcca4dc0U, 0xbde02e95be0a5f67U,
  0xbd4b05d53d8e30e8U, 0xbd7ec5d43e015145U, 0xbd456ae5bd8faf47U, 0xbc9898283cce4760U,
  0x3db9d4613dc988a4U, 0x3d31edc43e0de6efU, 0xbe03d50f3d540d31U, 0xbd3727e1bc07baf2U,
  0xbcf33ad33de3bb1eU, 0xbd8553673db49b6eU, 0xbe13ac8c3dab5269U, 0xbd2932683e0a9854U,
  0x3d4e0c71bd79ce22U, 0x3cc53de13e1d65e0U, 0xbd00e6643da6253bU, 0xbd8c6bf6bdbc0cacU,
  0x3d6b35f13d3e61f1U, 0xbdf85bf4b9dd5528U, 0xbdad305ebe1a38adU, 0xbe2c1e36be39e6a3U,
  0x3d284a4cbd8583c9U, 0xbdfffcefbda3aa16U, 0xbc1272233d179fd7U, 0xbcbd2e03bd67d30fU,
  0xbda0a387bc89b674U, 0xbcc782b4bd80eb31U, 0xbe0659473ca9718dU, 0x3dda36403cffc2e4U,
  0x3e0e31de3d1b05f1U, 0x3e01fdecbda3267eU, 0xbd529f46bd69ef31U, 0xbc2e2c673d2a9f82U,
  0x3df9544cbdc21fb4U, 0xbda45b143d7a2744U, 0x3ca63c7ebdb881b4U, 0x3c35b489bc9503bbU,
  0xbe2e9fbcbc10b1c8U, 0x3d34f3a63c714cb2U, 0x3da0c17c3dcbb4a1U, 0x3df10697be108123U,
  0xbe36206e3dda3b93U, 0x3dadf8dcbe228fe5U, 0xbe1523f1bdc99750U, 0x3d337d833da414d8U,
  0x3d2443a1bdb81bb0U, 0xbc57d91a3ca4d95fU, 0x3cc4d507bdfa4e76U, 0x3dd51815bd25ee63U,
  0x3de442b3bd1d1a4bU, 0xbe21e4363d76d58dU, 0x3d6ae626bda83cb0U, 0xbd84fa6dbddb4d11U,
  0xbd1eb9fd3df7aafcU, 0x3d545abdbd1cce85U, 0x3d7cf0f8bdb59c7cU, 0x3de76b783dd64dc3U,
  0x3e2d0935bd61c3a7U, 0xbd99db16bd8244ccU, 0x3d8e71033e220322U, 0x3d001ee03decf83fU,
  0x3aa548363d12d97bU, 0x3d9c91e2bdd55825U, 0x3c9fcb6bbda7b998U, 0x3dffcfa63dc7a3f5U,
  0x3da3cb0fbd7f50d1U, 0xbdc4c44bbe0c7ad0U, 0x3de24cb0bdb82ac5U, 0x3db22c1d3db55f78U,
  0xbd5b2d093d729038U, 0xbe1549f5be087697U, 0x3d0f214a3cc88e50U, 0xbd86703f3cd318f8U,
  0x3d3f6e9c3d27da95U, 0xbc9c0a9a3c9edb45U, 0xbe2397af3d90926eU, 0x3ce2e8f23db86990U,
  0xbd819c2e3defaa33U, 0xbcdd8029be222bdaU, 0x3da70704bdb630e2U, 0xbdac9e27bd80cabeU,
  0xbd57fa4ebddc9dd0U, 0xbdacf0e73dc28bb3U, 0x3db7e85cbd4b1a35U, 0xbe34abeabc3973f7U,
  0x3acb7cb8bcc645efU, 0xbca635b23d7446c3U, 0x3cb873e63d15d47eU, 0x3de1f4f03c8385b4U,
  0xbda61030bcda72e9U, 0xbc1d7f20be7c1fd0U, 0xbdc1de303dbe0a4fU, 0x3aa0ff7dbc9d0cd4U,
  0x3e31fbf3bdc8752dU, 0xbdd69d953c4f6ae2U, 0xb923268bbdc6b56dU, 0xbe61c219bca95792U,
  0x3c87f0593cca5669U, 0x3dbf1565bdb90f1fU, 0x3e04229a3e1b3271U, 0xbd49719d3d941858U,
  0x3cd977bbbd58305fU, 0x3d97e7293c8cf3ffU, 0x3d3e79edbe2e5e1aU, 0xbe108e8fbc94eebcU,
  0x3dce6a843e078b72U, 0xbde3b7a73ccc010dU, 0x3e40044ebdae9207U, 0xbd835b51bdc4327dU,
  0x3dfa5975bd108ca9U, 0xbe06cb86bd96a1f8U, 0x3d1a4ba7bdaf5c3fU, 0xbe82da3b3e650d30U,
  0xbda49af63e54f75bU, 0x3d758436bd58244dU, 0x3dc1be533da70c65U, 0x3d6ee63cbe3024a6U,
  0x3df6b903bd8cd2f5U, 0x3d889ff9bd7f3804U, 0xbda3dfe23dc6ba85U, 0xbd9ea146bdbb5d35U,
  0x3d70b2003d8bd2ddU, 0x3bfbc810bd735907U, 0x3e4fa17d3e1768f2U, 0xbe11a062bdac343aU,
  0x3e1d7612be3b6fb2U, 0x3d705193bd038370U, 0x3c879342bdf95c6eU, 0xbe50c7653cb58146U,
  0xbe2a16853da8caefU, 0xbc2351d83e1fdaa2U, 0xbd325ce9be171857U, 0xbde43863b89d9190U,
  0xbd2ae4453d6d10ceU, 0x3cd05b33bc8743fbU, 0xbd6a57263d800a72U, 0xbd06206ebccdfbe7U,
  0xbd18d7583d9ea168U, 0x3b4951413d3a5f62U, 0x3e019a7e3e206643U, 0x3c48bd063e0d6eb5U,
  0xbd1ac605bdb0f7f8U, 0x3e0f5b68bd51eb9dU, 0xbe1789abbd25c6cdU, 0xbcaff84d3c5386ddU,
  0x3e02a4c9bddfdcbeU, 0xbe4aa6a13e02266eU, 0x3d801cbe3d4d97b3U, 0x3de6e24c3d075946U,
  0xbd8fb6fa3cbf387cU, 0x3dd21e49bdbc48cdU, 0x3e09cb623df6102eU, 0xbb6beafa3cfcd78dU,
  0xbdbebccdbbbe5580U, 0x3d991b77bca21477U, 0xbe027f88bb189280U, 0x3c2dc525bdcec008U,
  0x3cbbcf59bdc4ce02U, 0x3c7f71aebd5dc8a2U, 0xbdadd4e03da07495U, 0xbe371744bbca4bb0U,
  0x3d3515ab3db3535dU, 0xbd7957ee3d18370dU, 0x3cedf477bdaa8425U, 0x3d1e674e3bbfdfe1U,
  0xbe18bca93e1284cbU, 0xbda25628bd4b75f2U, 0x3c2184eebdf5c1f8U, 0x3c579c5b3ca98fefU,
  0xbb87fd2fbc0c5837U, 0x3bcc949abd1eff83U, 0x3d17ebccbde28b1bU, 0xbcc40aefbddf7fa5U,
  0x3df1756bbe449353U, 0x3d7c7bbcbda889b1U, 0x3d9f1ffebe1403fcU, 0xbe4bce4e3d5c32efU,
  0xbd57f3fa3dadb84fU, 0xbe3817473dede15aU, 0xbcf2210ebe687dbeU, 0x3dbf6f1dbe38c2adU,
  0x3ce748abbdca9972U, 0x3d927ee2bced5632U, 0xbe03ff333c8ee108U, 0xbd853565bd0644a1U,
  0xbd40fdb9be1396deU, 0x3ddd107a3d14b0dcU, 0x3dd6e20f3e0eed72U, 0xbe258b04bd76ec82U,
  0x3dd66cbf3cd68a36U, 0xbda2aae0be67fee2U, 0xbdd72d3dbd3a6b57U, 0x3ce4f45f3d98995aU,
  0xbd49fcbd3e20b7ebU, 0xbd8915c5bdb51a4aU, 0xbd8e82d9be18f973U, 0xbd33d65abdc4fcc4U,
  0xbdb9b7673d68337dU, 0x3d48517bbdb9e4d7U, 0xbe05558bbdbe9cc0U, 0x3dff6156bd39b5d4U,
  0xbdb54424bdcd0f9fU, 0xbd5f9ac0bde84787U, 0xbd0bac043da6d5daU, 0xbafd88da3d34e914U,
  0xbcf8d61dbdaab9b6U, 0x3e133ec03b091250U, 0xbd9a34f7bd84bd9aU, 0xbe423382bb5f92caU,
  0xbe067d8c3d47d4d2U, 0xbd90b5623cd1f6f4U, 0x3e1334f6bd32fa10U, 0x3df56d543daf7de2U,
  0xbde6134cbd4c2281U, 0xbe4f13bbbde8584eU, 0x3c28d08d3e032941U, 0x3d89c00f3cb95f1aU,
